
#ifdef __has_attribute
#define HAVE_ATTRIBUTE(x) __has_attribute(x)
#else
#define HAVE_ATTRIBUTE(x) 0
#endif
#if HAVE_ATTRIBUTE(aligned) || (defined(__GNUC__) && !defined(__clang__))
#define DATA_ALIGN_ATTRIBUTE __attribute__((aligned(4)))
#else
#define DATA_ALIGN_ATTRIBUTE
#endif

const unsigned char model_data[] DATA_ALIGN_ATTRIBUTE = {0x08, 0x00, 0x00, 0x00, 0x54, 0x46, 0x4c, 0x33, 0x5a, 0xf7, 0xff, 0xff, 0x03, 0x00, 0x00, 0x00, 0x50, 0x0c, 0x00, 0x00, 0x90, 0x08, 0x00, 0x00, 0x78, 0x08, 0x00, 0x00, 0x04, 0x00, 0x00, 0x00, 0x09, 0x00, 0x00, 0x00, 0x68, 0x08, 0x00, 0x00, 0x60, 0x08, 0x00, 0x00, 0x3c, 0x08, 0x00, 0x00, 0x20, 0x08, 0x00, 0x00, 0x40, 0x00, 0x00, 0x00, 0x1c, 0x00, 0x00, 0x00, 0x14, 0x00, 0x00, 0x00, 0x0c, 0x00, 0x00, 0x00, 0x04, 0x00, 0x00, 0x00, 0x10, 0xf4, 0xff, 0xff, 0x14, 0xf4, 0xff, 0xff, 0x18, 0xf4, 0xff, 0xff, 0xf2, 0xf7, 0xff, 0xff, 0x04, 0x00, 0x00, 0x00, 0x14, 0x00, 0x00, 0x00, 0xf9, 0x09, 0x82, 0xbf, 0xb8, 0x89, 0x88, 0x3e, 0x20, 0xb1, 0xcc, 0xbe, 0x2b, 0x14, 0x9a, 0x3e, 0x06, 0x4a, 0xfd, 0x3e, 0x12, 0xf8, 0xff, 0xff, 0x04, 0x00, 0x00, 0x00, 0xd0, 0x07, 0x00, 0x00, 0xc4, 0xaf, 0x42, 0x45, 0x10, 0x11, 0xf4, 0xf1, 0xcb, 0xe2, 0x1b, 0xd9, 0xda, 0xe5, 0x33, 0x17, 0x44, 0xcf, 0x3c, 0x07, 0xd5, 0x10, 0xf8, 0x18, 0xc2, 0xc6, 0xb1, 0xa6, 0x30, 0xba, 0x0f, 0xd8, 0xb7, 0x0f, 0x20, 0xd2, 0xfa, 0x19, 0x4e, 0xcc, 0x00, 0xef, 0xfd, 0xf0, 0xb9, 0xaa, 0xcc, 0x37, 0xbe, 0xbd, 0xcc, 0xb3, 0xaf, 0xd8, 0x49, 0x42, 0xe4, 0x36, 0xb2, 0x09, 0xe8, 0xd0, 0x28, 0x06, 0xa4, 0xf6, 0xde, 0xbb, 0xdf, 0xa2, 0xb4, 0xd5, 0x35, 0xed, 0x13, 0x28, 0xee, 0xdd, 0x0d, 0x17, 0x37, 0xef, 0xf2, 0xfe, 0x19, 0xf4, 0xa9, 0xc9, 0x27, 0x14, 0x23, 0x0c, 0x3d, 0xf4, 0xcf, 0x26, 0xbf, 0xec, 0xab, 0xe0, 0xc9, 0xeb, 0x33, 0x12, 0xbe, 0xed, 0x1b, 0xc9, 0x38, 0x24, 0xec, 0x27, 0xf4, 0xcc, 0x04, 0x26, 0x0a, 0x42, 0xc3, 0xe4, 0xd6, 0xb9, 0x1d, 0x2f, 0x33, 0x14, 0x21, 0xc0, 0xcd, 0x39, 0x3b, 0xa8, 0x2d, 0x32, 0xea, 0xe4, 0xb6, 0x2b, 0x33, 0xbe, 0xbe, 0xb8, 0xd2, 0xe3, 0xa6, 0xc3, 0xe3, 0xed, 0x1d, 0xaf, 0x4a, 0xbc, 0x19, 0x30, 0x23, 0xfe, 0xb7, 0x36, 0x4b, 0x00, 0xb4, 0xf7, 0xc9, 0xb0, 0x06, 0x17, 0xb9, 0xdb, 0x19, 0xfc, 0x36, 0xc1, 0x01, 0x00, 0xb2, 0xe5, 0x02, 0x46, 0x05, 0xc7, 0xe6, 0x2a, 0xd5, 0x31, 0x45, 0x00, 0x1c, 0xf6, 0xf0, 0x20, 0x28, 0x09, 0x38, 0x2a, 0x41, 0x3f, 0x2c, 0xaa, 0xb6, 0xd3, 0xbc, 0xf1, 0xb2, 0xf6, 0x31, 0x01, 0x13, 0xe9, 0x08, 0x3a, 0xe0, 0x06, 0x65, 0x4f, 0x26, 0xd7, 0x27, 0xb8, 0xb8, 0xfb, 0x2d, 0xc8, 0x32, 0xf1, 0xc9, 0x00, 0xf3, 0x3b, 0x14, 0x03, 0xdb, 0xd5, 0xd5, 0xe3, 0x02, 0xc9, 0xf7, 0xb5, 0xb8, 0x3f, 0xb7, 0xee, 0x16, 0xec, 0x61, 0x2b, 0x31, 0xc6, 0xff, 0x2f, 0x62, 0x37, 0x68, 0xd6, 0x59, 0xc8, 0x50, 0xd8, 0xa5, 0xad, 0x37, 0x1a, 0xd8, 0xe0, 0xe4, 0x40, 0xd9, 0xc9, 0x20, 0xc6, 0xef, 0x3a, 0xe0, 0xdc, 0x1b, 0xd3, 0xe1, 0x08, 0xb9, 0xe0, 0x50, 0x05, 0xbf, 0x08, 0xeb, 0x3e, 0x3b, 0xdb, 0x0a, 0x45, 0xea, 0x0f, 0x58, 0x43, 0x0b, 0x17, 0x20, 0xc5, 0xdc, 0xc2, 0xfe, 0xc7, 0x25, 0x37, 0xca, 0xe1, 0x2a, 0xcf, 0xe3, 0x56, 0xce, 0x42, 0xe4, 0xd6, 0x43, 0x47, 0x26, 0xc2, 0xf5, 0xef, 0xbf, 0x33, 0xbc, 0x20, 0xa6, 0x3c, 0x3b, 0xd5, 0xec, 0x60, 0x5e, 0xd0, 0x39, 0xfe, 0xc6, 0xed, 0x25, 0x01, 0xb0, 0xfc, 0x11, 0xb7, 0x15, 0xfc, 0xd8, 0xe4, 0x2e, 0x09, 0xe1, 0xd0, 0xd5, 0xd0, 0x48, 0x1e, 0x17, 0x32, 0x48, 0xc7, 0xeb, 0xb2, 0x3b, 0xc7, 0x32, 0xba, 0xe1, 0x0d, 0xac, 0xb9, 0xb8, 0x22, 0xc3, 0xd7, 0x0b, 0x24, 0x1c, 0x37, 0x0a, 0x45, 0x06, 0x0d, 0x25, 0x34, 0x56, 0x2c, 0xa5, 0xd6, 0xf4, 0xc2, 0xb4, 0x3c, 0x3e, 0x0f, 0xfb, 0x05, 0x20, 0x0c, 0x06, 0x39, 0xf1, 0xd7, 0x1c, 0xda, 0x21, 0xd2, 0x30, 0xfb, 0x12, 0x02, 0xf6, 0x12, 0xf4, 0x21, 0xd3, 0x33, 0xa0, 0x0f, 0xb4, 0xe8, 0xda, 0xf1, 0x07, 0x58, 0xef, 0x56, 0xd2, 0xe5, 0xee, 0x5d, 0x09, 0xd7, 0x03, 0x59, 0x21, 0xed, 0x41, 0xb3, 0x42, 0x51, 0x14, 0xda, 0x53, 0x56, 0xb7, 0xbd, 0x25, 0x09, 0xf6, 0x0d, 0xd4, 0xeb, 0x18, 0xf2, 0xe9, 0x56, 0xfd, 0x25, 0x0c, 0xee, 0xd8, 0x00, 0x37, 0x55, 0xea, 0xec, 0xcb, 0x4e, 0xea, 0x2c, 0xe3, 0x48, 0xea, 0x2e, 0x19, 0x4e, 0x40, 0x48, 0xdb, 0xcc, 0x0c, 0x12, 0xfd, 0x40, 0xb9, 0xdc, 0x30, 0x58, 0x4c, 0xd0, 0xf6, 0xc8, 0xea, 0x45, 0xd3, 0xcb, 0xcf, 0x0a, 0x48, 0x11, 0xd1, 0x37, 0xe3, 0x32, 0x25, 0x19, 0xd2, 0xee, 0x43, 0xfd, 0x4d, 0x31, 0x21, 0x30, 0x07, 0x32, 0x49, 0xeb, 0xc0, 0xdb, 0x0b, 0xc1, 0xe6, 0x31, 0x24, 0x40, 0x64, 0x46, 0xc9, 0x43, 0x0e, 0xf7, 0x42, 0xd6, 0xe1, 0x25, 0xf6, 0xf3, 0x20, 0xec, 0x1f, 0x26, 0x1c, 0x39, 0xca, 0x1c, 0xde, 0x17, 0xe7, 0x22, 0x33, 0xf0, 0x29, 0x0c, 0x3f, 0x4f, 0x09, 0xcc, 0x05, 0xd9, 0xbf, 0x42, 0xb8, 0x4e, 0xb8, 0xec, 0xca, 0x52, 0x4b, 0xcf, 0x3e, 0x53, 0x32, 0x56, 0xe2, 0x10, 0xd2, 0xd6, 0x4b, 0x05, 0x12, 0x1d, 0x42, 0xc8, 0x4b, 0xfa, 0x34, 0x0f, 0x07, 0x2c, 0xc3, 0x1c, 0x4f, 0x25, 0xd7, 0xc4, 0x49, 0xee, 0x2e, 0x11, 0x43, 0xdc, 0xad, 0x4b, 0x03, 0x22, 0xbb, 0x27, 0x35, 0x1b, 0x12, 0x52, 0xfe, 0xe7, 0x09, 0xc0, 0xc5, 0xd5, 0xc8, 0x38, 0x45, 0x48, 0x57, 0xfc, 0xc6, 0x55, 0xe3, 0xe8, 0x59, 0xab, 0xe3, 0x34, 0xba, 0x40, 0xe1, 0xb6, 0x1a, 0xe3, 0x1f, 0xf5, 0x39, 0xec, 0xe2, 0xdc, 0xf1, 0x5d, 0x09, 0xac, 0xab, 0xb1, 0x07, 0xfd, 0x0b, 0x00, 0x3a, 0xcb, 0xfe, 0x29, 0x24, 0x4a, 0xe7, 0x13, 0x55, 0x15, 0xe4, 0xdd, 0x22, 0xc2, 0x0b, 0xbf, 0xab, 0x14, 0xa5, 0x2a, 0x06, 0x38, 0x20, 0xa3, 0xa7, 0x33, 0x2f, 0x54, 0xaf, 0xca, 0x41, 0x18, 0x17, 0xc5, 0x42, 0xef, 0x3b, 0xab, 0x34, 0x29, 0xee, 0x0f, 0x3a, 0x25, 0x0a, 0x3e, 0xcc, 0xf1, 0xce, 0xf1, 0xfb, 0xb4, 0xfd, 0xe8, 0x16, 0x11, 0x13, 0xe1, 0xa2, 0x30, 0x16, 0x04, 0x0f, 0x00, 0xe4, 0x63, 0xe0, 0xee, 0xc7, 0xe0, 0xf7, 0x18, 0xd8, 0x19, 0x29, 0x48, 0xe0, 0x25, 0x0c, 0x07, 0x0b, 0x07, 0x0e, 0xcf, 0x15, 0x26, 0x2a, 0xd5, 0x0d, 0x41, 0xc2, 0x22, 0xe0, 0xd5, 0x5c, 0x3c, 0xa7, 0xa4, 0x33, 0xf4, 0xe1, 0x1a, 0xee, 0x21, 0x4f, 0x5d, 0xe1, 0x60, 0xec, 0xb3, 0x4d, 0xdd, 0x0f, 0x25, 0x2a, 0xed, 0xce, 0xae, 0xe2, 0x0e, 0x34, 0xca, 0xce, 0x1f, 0xf5, 0x28, 0xf5, 0xbf, 0x16, 0x1f, 0xf0, 0x1a, 0xcf, 0xdc, 0xe0, 0x21, 0x5d, 0x34, 0x1e, 0x34, 0x36, 0x12, 0x41, 0x27, 0x23, 0xff, 0x68, 0x18, 0x25, 0x10, 0x5a, 0x12, 0x00, 0xce, 0x3d, 0xd3, 0xa2, 0xab, 0xa2, 0xc7, 0xcb, 0xa8, 0x3f, 0xee, 0x28, 0x3a, 0xd7, 0x0c, 0x2f, 0xc7, 0xc6, 0x26, 0x1f, 0xb8, 0xb4, 0xd9, 0x11, 0xf7, 0xba, 0xb7, 0xe9, 0x9f, 0xbe, 0x3c, 0xd6, 0x23, 0x50, 0xfa, 0x29, 0xe8, 0x45, 0xf1, 0x37, 0x37, 0xd0, 0xf5, 0x19, 0x34, 0xe3, 0xbd, 0x1a, 0xd1, 0x9b, 0x45, 0x07, 0xf7, 0xc6, 0xd6, 0xdf, 0x4b, 0x47, 0x00, 0xe6, 0x0d, 0x03, 0xcd, 0xc7, 0x1f, 0xab, 0xb0, 0xba, 0x06, 0x15, 0xa5, 0xed, 0x31, 0x46, 0xb7, 0x32, 0xf0, 0x01, 0x35, 0x35, 0xf4, 0x35, 0xfd, 0xa6, 0x03, 0x2a, 0xa2, 0xa2, 0x1a, 0xe6, 0xf8, 0xef, 0xeb, 0x4c, 0x29, 0x3a, 0xd3, 0x61, 0x07, 0x9f, 0x28, 0x10, 0xf1, 0x38, 0x15, 0xdb, 0xfc, 0x39, 0x06, 0x0e, 0x24, 0x06, 0x2c, 0xb1, 0xf0, 0x57, 0x61, 0x1d, 0xb8, 0x32, 0xd5, 0xc8, 0xf5, 0xb0, 0xd3, 0x31, 0x20, 0x03, 0xef, 0xa9, 0x9e, 0xbd, 0x1e, 0x5f, 0x06, 0xe4, 0x3b, 0xf0, 0x3d, 0xa1, 0xd4, 0x02, 0x30, 0xa7, 0xa0, 0x14, 0x2f, 0x1e, 0xd0, 0xe8, 0xe1, 0x1b, 0xb4, 0x54, 0x52, 0xe0, 0xc6, 0x4c, 0x3a, 0x2c, 0x23, 0x10, 0x9f, 0xec, 0xb8, 0xd6, 0xbe, 0xce, 0x31, 0x27, 0xee, 0xd8, 0x42, 0xcb, 0xfd, 0xda, 0xfe, 0xe6, 0xd4, 0xb6, 0xa2, 0x28, 0x1a, 0x22, 0x31, 0x99, 0x0a, 0xb7, 0x9d, 0x00, 0xa2, 0x3e, 0xb7, 0xff, 0xcb, 0xc4, 0xe0, 0x33, 0x5c, 0xd4, 0x10, 0xa5, 0xc5, 0x2d, 0xf0, 0xfd, 0x23, 0xe4, 0xac, 0xdb, 0x9f, 0x56, 0xdf, 0xe5, 0x04, 0x57, 0x4c, 0xdc, 0x31, 0xd4, 0xe9, 0x1b, 0x08, 0x09, 0x9d, 0xec, 0x03, 0xfa, 0xac, 0x28, 0x05, 0x17, 0xda, 0x30, 0x2c, 0x1f, 0x31, 0x17, 0xc4, 0x22, 0xfc, 0x01, 0xd8, 0xa9, 0xe9, 0x35, 0xd9, 0x0c, 0xb8, 0x2f, 0xf2, 0xf8, 0xe5, 0x31, 0xc7, 0x24, 0xe6, 0xb1, 0xae, 0xc7, 0xe2, 0xcc, 0xa1, 0x21, 0xbf, 0x38, 0xff, 0xa8, 0x3b, 0xe1, 0x41, 0x32, 0xfb, 0xd6, 0x32, 0xd4, 0xb9, 0xaf, 0x46, 0x33, 0x3e, 0xca, 0xd2, 0x01, 0x2d, 0x0c, 0x3e, 0xbb, 0x3e, 0x25, 0x13, 0x41, 0x4b, 0xc9, 0xdb, 0x54, 0x2f, 0x49, 0x0a, 0xb9, 0x40, 0xc7, 0xee, 0x2f, 0xc1, 0xc7, 0xe8, 0xb4, 0x53, 0xe9, 0xbb, 0xd1, 0xe2, 0xd0, 0xcc, 0xde, 0x00, 0xb6, 0xbe, 0xf6, 0xb8, 0xe3, 0xe7, 0x41, 0x15, 0xc1, 0xb5, 0xe3, 0xcf, 0x3c, 0xb5, 0x06, 0x15, 0xf6, 0xd7, 0xb2, 0x2c, 0xd4, 0x4a, 0x00, 0xab, 0xf6, 0x15, 0xcf, 0xf4, 0xab, 0x46, 0x28, 0xec, 0x0b, 0xeb, 0x36, 0x3a, 0xeb, 0xb7, 0xa8, 0x04, 0xc4, 0x32, 0x2b, 0x3b, 0xff, 0x38, 0xd1, 0xb8, 0xd5, 0xba, 0x4f, 0x0f, 0xa8, 0xf3, 0x10, 0xa9, 0x00, 0x40, 0xd2, 0xf7, 0x27, 0x3d, 0x31, 0xd5, 0x02, 0xc6, 0xc1, 0x1f, 0x3b, 0xff, 0xe7, 0x3a, 0x08, 0xaf, 0x1b, 0xcd, 0x42, 0x1f, 0xd7, 0x08, 0x49, 0xe5, 0xe9, 0x1a, 0x14, 0xef, 0xd4, 0xda, 0x1c, 0x6b, 0x02, 0x4f, 0x79, 0xc5, 0x0c, 0xb5, 0x3f, 0xc8, 0xf5, 0x18, 0xbb, 0xd5, 0x66, 0x37, 0x11, 0x32, 0x32, 0x1c, 0xce, 0x3b, 0xf6, 0x37, 0xf1, 0x38, 0xdd, 0xc2, 0xf1, 0xf8, 0x9e, 0xe0, 0x51, 0xfc, 0x2c, 0xd6, 0x17, 0x43, 0x47, 0xe6, 0xcf, 0xe8, 0xc9, 0xf9, 0x79, 0xd0, 0xf0, 0xec, 0xff, 0x02, 0x00, 0xd2, 0x04, 0x23, 0x4f, 0xe0, 0x3b, 0x12, 0x5d, 0x16, 0x28, 0xe2, 0x34, 0x06, 0x12, 0x3c, 0xeb, 0xbe, 0x09, 0xa3, 0x14, 0x17, 0xf4, 0xc9, 0x03, 0x54, 0x65, 0x67, 0xd7, 0xce, 0x07, 0x3d, 0x57, 0xf9, 0x33, 0xdc, 0x1d, 0xc2, 0x16, 0x40, 0x04, 0xd2, 0x30, 0xee, 0x01, 0xfd, 0x27, 0x34, 0x25, 0x15, 0xd9, 0xdd, 0x5b, 0x79, 0x1b, 0x09, 0x5a, 0x2c, 0xbb, 0xc8, 0xe1, 0x42, 0xdc, 0x29, 0xe9, 0x48, 0xab, 0x09, 0xea, 0x0f, 0xe3, 0x57, 0x23, 0x1f, 0x33, 0x6d, 0xf1, 0xff, 0xe6, 0xf6, 0xef, 0xde, 0xd9, 0x32, 0x2d, 0x50, 0x20, 0xd6, 0xfd, 0x3b, 0x23, 0xef, 0xd2, 0xf6, 0x6c, 0x40, 0x0f, 0x5c, 0x9c, 0x9e, 0x20, 0x08, 0x09, 0xc6, 0x16, 0xdf, 0x56, 0x29, 0xe2, 0xcc, 0x38, 0xf9, 0x1f, 0xe1, 0xc4, 0x44, 0xba, 0xd8, 0x2c, 0xa1, 0x1f, 0xc8, 0x28, 0x13, 0x38, 0x4e, 0xd2, 0xd9, 0xe0, 0x3f, 0x09, 0xe3, 0xfc, 0x29, 0x11, 0x36, 0xde, 0xd9, 0xa6, 0xd2, 0xb8, 0x27, 0x4d, 0x51, 0x7e, 0xd0, 0x45, 0x44, 0xca, 0x60, 0xc8, 0x2f, 0x3c, 0x2f, 0xc5, 0xf6, 0xd9, 0x2a, 0xc2, 0xdc, 0x0a, 0xf0, 0x15, 0x41, 0x12, 0xd1, 0xaf, 0x02, 0xfa, 0xe8, 0xf7, 0x45, 0x19, 0xd8, 0x3a, 0xee, 0x00, 0x4f, 0xd5, 0x05, 0xe9, 0x36, 0x2f, 0xf3, 0xd4, 0xbd, 0xcd, 0xa5, 0xa9, 0xb1, 0xf1, 0x98, 0xf1, 0x1e, 0x0d, 0x9f, 0xe9, 0xc8, 0x13, 0xa1, 0xff, 0x7d, 0x24, 0x12, 0x86, 0x43, 0xe2, 0x09, 0xc9, 0x2a, 0xf8, 0xb9, 0x38, 0xbb, 0xb4, 0x05, 0xcc, 0xe3, 0x28, 0x10, 0xf5, 0x3d, 0x3f, 0xdb, 0xca, 0x0a, 0x36, 0x1f, 0x1d, 0x06, 0xd0, 0xf5, 0x8e, 0xc3, 0x0b, 0x98, 0xf1, 0x0f, 0xc1, 0x4c, 0x0e, 0xf2, 0x23, 0x63, 0xaf, 0x20, 0xb8, 0xb0, 0x05, 0xda, 0xbf, 0x1b, 0x2b, 0xb8, 0x07, 0xd6, 0x4a, 0xd5, 0x1e, 0x36, 0x42, 0x58, 0x6a, 0x3c, 0x24, 0x3b, 0xd1, 0x3f, 0xb4, 0x05, 0x17, 0x1e, 0xaf, 0xdc, 0xce, 0xcc, 0xf4, 0xc0, 0xfc, 0xfd, 0xec, 0x48, 0x10, 0x15, 0x2e, 0xda, 0x37, 0x29, 0xf1, 0x30, 0x39, 0x00, 0xdb, 0x21, 0x1d, 0x48, 0x8e, 0xd7, 0x47, 0x1a, 0xe4, 0xde, 0x4f, 0xf1, 0xf3, 0x1f, 0xdd, 0x20, 0xe4, 0x19, 0x5b, 0x2c, 0x3a, 0x29, 0x6a, 0xbb, 0xda, 0xdb, 0xf6, 0x21, 0xec, 0xe5, 0x50, 0xee, 0x1a, 0xe3, 0x28, 0x44, 0x47, 0xe3, 0xdc, 0x3b, 0xed, 0xd7, 0xa5, 0xcd, 0xa1, 0xe1, 0xf8, 0xc0, 0x16, 0x03, 0xf7, 0x02, 0x69, 0xe0, 0x18, 0x23, 0x2a, 0x1b, 0x02, 0xdf, 0xb9, 0x39, 0x3e, 0x23, 0x0f, 0xd8, 0x2f, 0x1c, 0x0b, 0xdb, 0xdd, 0x55, 0xf5, 0x30, 0x4a, 0x32, 0x53, 0xcd, 0xce, 0xfa, 0x1a, 0x0c, 0x39, 0xc8, 0x46, 0x12, 0x0b, 0x4a, 0x3f, 0x10, 0x12, 0x44, 0x61, 0xfb, 0x1a, 0x32, 0x60, 0x2a, 0x30, 0xf9, 0xfe, 0x2e, 0xc2, 0xe6, 0x05, 0xe4, 0x4b, 0xeb, 0xca, 0xe9, 0x46, 0xd6, 0x18, 0x4b, 0x14, 0x35, 0x47, 0x1b, 0x66, 0x2c, 0xea, 0x51, 0x21, 0x65, 0x02, 0x52, 0xd9, 0x34, 0x34, 0x00, 0x28, 0x36, 0x12, 0x15, 0x1f, 0x5c, 0xdf, 0xcb, 0x3a, 0xf9, 0xef, 0xc8, 0xf0, 0x13, 0x28, 0xf7, 0x43, 0x2b, 0x26, 0x17, 0xd9, 0xeb, 0xd3, 0x42, 0x1f, 0x5b, 0x1c, 0xee, 0xcb, 0xe4, 0x47, 0xf9, 0x40, 0x12, 0x69, 0x14, 0x5f, 0xf6, 0x1b, 0x1a, 0x1b, 0xf4, 0xc8, 0x19, 0x1d, 0x00, 0xda, 0xf6, 0x56, 0xe3, 0xe0, 0xdb, 0xe0, 0x23, 0x26, 0xef, 0xdd, 0xc8, 0x1e, 0x10, 0xe5, 0xb8, 0x63, 0xeb, 0x42, 0xf6, 0x17, 0x49, 0x1d, 0xcd, 0x47, 0x30, 0xdf, 0xd7, 0x3e, 0x53, 0xc8, 0x0b, 0xf7, 0x0c, 0x4f, 0x29, 0xd8, 0x34, 0xa4, 0x30, 0x60, 0x31, 0xe5, 0xbe, 0x08, 0x45, 0xfa, 0x15, 0xea, 0x64, 0x18, 0xfb, 0xab, 0xaa, 0x22, 0x38, 0x1b, 0x45, 0x0a, 0x18, 0x28, 0xc9, 0x1a, 0x4f, 0xed, 0x4f, 0x2b, 0x54, 0xfa, 0xe6, 0x20, 0xf2, 0x4d, 0xc5, 0xb5, 0xf2, 0x05, 0xcd, 0xb9, 0xfe, 0x51, 0xc5, 0xbe, 0xa1, 0xe7, 0xc0, 0xf9, 0xf1, 0xe5, 0xff, 0x33, 0xda, 0x07, 0x47, 0x38, 0xf3, 0xf2, 0x4a, 0xf7, 0xce, 0x05, 0x15, 0xdf, 0xf4, 0x1f, 0xf8, 0xf4, 0xac, 0xb9, 0x0c, 0x07, 0x2d, 0xfb, 0x0d, 0xcb, 0x56, 0xcd, 0xe2, 0x3f, 0xdd, 0x05, 0xf3, 0x2b, 0x2d, 0x29, 0xfc, 0x3d, 0x1a, 0x3b, 0x25, 0x54, 0x52, 0x67, 0xd8, 0xda, 0x30, 0xc0, 0x9d, 0xc8, 0x0f, 0xe4, 0xc5, 0xe7, 0xb7, 0x15, 0xaf, 0x18, 0xc9, 0xf0, 0x47, 0xe6, 0x1e, 0x57, 0xd6, 0x10, 0x36, 0x2b, 0xe6, 0xc5, 0xf2, 0x4f, 0xf9, 0x5e, 0xd9, 0xbe, 0x3d, 0x0f, 0xf4, 0x4b, 0x59, 0x34, 0x29, 0x2d, 0x56, 0xc9, 0x27, 0x10, 0xfc, 0xe3, 0xfa, 0xea, 0xcc, 0x34, 0x0b, 0xe7, 0xf8, 0xaf, 0x48, 0x19, 0x45, 0x27, 0x0e, 0xf6, 0x37, 0xf0, 0xd9, 0x0f, 0x30, 0xdc, 0xe3, 0x9d, 0x2f, 0x9e, 0x1c, 0x27, 0xca, 0xb4, 0xcf, 0x54, 0x49, 0x7c, 0x49, 0x1a, 0x47, 0xe8, 0x48, 0xd8, 0x66, 0x49, 0x10, 0xc4, 0xa5, 0xfb, 0x8d, 0xc2, 0xfe, 0x0d, 0x1a, 0x27, 0x22, 0xfa, 0x34, 0x4a, 0xff, 0x4b, 0xcf, 0xc8, 0x72, 0xf9, 0x1f, 0x15, 0x53, 0xbb, 0xd2, 0xef, 0x4b, 0xd8, 0x26, 0x05, 0x4c, 0x35, 0xfe, 0x3b, 0x13, 0x26, 0xd4, 0xcf, 0x09, 0x42, 0x57, 0xf3, 0xf6, 0x02, 0xd9, 0xd7, 0x50, 0xec, 0x64, 0x40, 0x7f, 0xf1, 0x4d, 0xee, 0xff, 0xff, 0xff, 0x04, 0x00, 0x00, 0x00, 0x04, 0x00, 0x00, 0x00, 0x39, 0xb5, 0x17, 0x3c, 0x00, 0x00, 0x06, 0x00, 0x08, 0x00, 0x04, 0x00, 0x06, 0x00, 0x00, 0x00, 0x04, 0x00, 0x00, 0x00, 0x14, 0x00, 0x00, 0x00, 0x25, 0xd4, 0x45, 0x3c, 0x41, 0x46, 0x44, 0x3c, 0xdb, 0xfb, 0x96, 0x3c, 0x83, 0xf4, 0x81, 0x3d, 0xcd, 0x88, 0x85, 0x3d, 0x50, 0xfc, 0xff, 0xff, 0x54, 0xfc, 0xff, 0xff, 0x0f, 0x00, 0x00, 0x00, 0x4d, 0x4c, 0x49, 0x52, 0x20, 0x43, 0x6f, 0x6e, 0x76, 0x65, 0x72, 0x74, 0x65, 0x64, 0x2e, 0x00, 0x01, 0x00, 0x00, 0x00, 0x14, 0x00, 0x00, 0x00, 0x00, 0x00, 0x0e, 0x00, 0x18, 0x00, 0x04, 0x00, 0x08, 0x00, 0x0c, 0x00, 0x10, 0x00, 0x14, 0x00, 0x0e, 0x00, 0x00, 0x00, 0xf8, 0x00, 0x00, 0x00, 0xec, 0x00, 0x00, 0x00, 0xe0, 0x00, 0x00, 0x00, 0x14, 0x00, 0x00, 0x00, 0x04, 0x00, 0x00, 0x00, 0x04, 0x00, 0x00, 0x00, 0x6d, 0x61, 0x69, 0x6e, 0x00, 0x00, 0x00, 0x00, 0x03, 0x00, 0x00, 0x00, 0x88, 0x00, 0x00, 0x00, 0x44, 0x00, 0x00, 0x00, 0x10, 0x00, 0x00, 0x00, 0x00, 0x00, 0x0a, 0x00, 0x10, 0x00, 0x04, 0x00, 0x08, 0x00, 0x0c, 0x00, 0x0a, 0x00, 0x00, 0x00, 0x01, 0x00, 0x00, 0x00, 0x10, 0x00, 0x00, 0x00, 0x04, 0x00, 0x00, 0x00, 0x01, 0x00, 0x00, 0x00, 0x07, 0x00, 0x00, 0x00, 0x01, 0x00, 0x00, 0x00, 0x06, 0x00, 0x00, 0x00, 0x00, 0x00, 0x0e, 0x00, 0x14, 0x00, 0x00, 0x00, 0x08, 0x00, 0x0c, 0x00, 0x07, 0x00, 0x10, 0x00, 0x0e, 0x00, 0x00, 0x00, 0x00, 0x00, 0x00, 0x08, 0x18, 0x00, 0x00, 0x00, 0x0c, 0x00, 0x00, 0x00, 0x04, 0x00, 0x00, 0x00, 0x08, 0xfd, 0xff, 0xff, 0x01, 0x00, 0x00, 0x00, 0x06, 0x00, 0x00, 0x00, 0x03, 0x00, 0x00, 0x00, 0x05, 0x00, 0x00, 0x00, 0x04, 0x00, 0x00, 0x00, 0x02, 0x00, 0x00, 0x00, 0x00, 0x00, 0x0e, 0x00, 0x16, 0x00, 0x00, 0x00, 0x08, 0x00, 0x0c, 0x00, 0x07, 0x00, 0x10, 0x00, 0x0e, 0x00, 0x00, 0x00, 0x00, 0x00, 0x00, 0x08, 0x24, 0x00, 0x00, 0x00, 0x18, 0x00, 0x00, 0x00, 0x0c, 0x00, 0x00, 0x00, 0x00, 0x00, 0x06, 0x00, 0x08, 0x00, 0x07, 0x00, 0x06, 0x00, 0x00, 0x00, 0x00, 0x00, 0x00, 0x01, 0x01, 0x00, 0x00, 0x00, 0x05, 0x00, 0x00, 0x00, 0x03, 0x00, 0x00, 0x00, 0x00, 0x00, 0x00, 0x00, 0x03, 0x00, 0x00, 0x00, 0x01, 0x00, 0x00, 0x00, 0x01, 0x00, 0x00, 0x00, 0x07, 0x00, 0x00, 0x00, 0x01, 0x00, 0x00, 0x00, 0x00, 0x00, 0x00, 0x00, 0x08, 0x00, 0x00, 0x00, 0x68, 0x02, 0x00, 0x00, 0x00, 0x02, 0x00, 0x00, 0xa8, 0x01, 0x00, 0x00, 0x2c, 0x01, 0x00, 0x00, 0xd0, 0x00, 0x00, 0x00, 0x88, 0x00, 0x00, 0x00, 0x3c, 0x00, 0x00, 0x00, 0x04, 0x00, 0x00, 0x00, 0xc6, 0xfd, 0xff, 0xff, 0x24, 0x00, 0x00, 0x00, 0x08, 0x00, 0x00, 0x00, 0x0c, 0x00, 0x00, 0x00, 0x04, 0x00, 0x00, 0x00, 0xb8, 0xfd, 0xff, 0xff, 0x08, 0x00, 0x00, 0x00, 0x49, 0x64, 0x65, 0x6e, 0x74, 0x69, 0x74, 0x79, 0x00, 0x00, 0x00, 0x00, 0x02, 0x00, 0x00, 0x00, 0x01, 0x00, 0x00, 0x00, 0x01, 0x00, 0x00, 0x00, 0xfa, 0xfd, 0xff, 0xff, 0x38, 0x00, 0x00, 0x00, 0x07, 0x00, 0x00, 0x00, 0x0c, 0x00, 0x00, 0x00, 0x04, 0x00, 0x00, 0x00, 0xec, 0xfd, 0xff, 0xff, 0x1e, 0x00, 0x00, 0x00, 0x73, 0x65, 0x71, 0x75, 0x65, 0x6e, 0x74, 0x69, 0x61, 0x6c, 0x5f, 0x31, 0x31, 0x2f, 0x64, 0x65, 0x6e, 0x73, 0x65, 0x5f, 0x33, 0x30, 0x2f, 0x42, 0x69, 0x61, 0x73, 0x41, 0x64, 0x64, 0x00, 0x00, 0x02, 0x00, 0x00, 0x00, 0x01, 0x00, 0x00, 0x00, 0x01, 0x00, 0x00, 0x00, 0x42, 0xfe, 0xff, 0xff, 0x34, 0x00, 0x00, 0x00, 0x06, 0x00, 0x00, 0x00, 0x0c, 0x00, 0x00, 0x00, 0x04, 0x00, 0x00, 0x00, 0x34, 0xfe, 0xff, 0xff, 0x1b, 0x00, 0x00, 0x00, 0x73, 0x65, 0x71, 0x75, 0x65, 0x6e, 0x74, 0x69, 0x61, 0x6c, 0x5f, 0x31, 0x31, 0x2f, 0x64, 0x65, 0x6e, 0x73, 0x65, 0x5f, 0x32, 0x39, 0x2f, 0x52, 0x65, 0x6c, 0x75, 0x00, 0x02, 0x00, 0x00, 0x00, 0x01, 0x00, 0x00, 0x00, 0x05, 0x00, 0x00, 0x00, 0x86, 0xfe, 0xff, 0xff, 0x38, 0x00, 0x00, 0x00, 0x05, 0x00, 0x00, 0x00, 0x0c, 0x00, 0x00, 0x00, 0x04, 0x00, 0x00, 0x00, 0x78, 0xfe, 0xff, 0xff, 0x1d, 0x00, 0x00, 0x00, 0x73, 0x65, 0x71, 0x75, 0x65, 0x6e, 0x74, 0x69, 0x61, 0x6c, 0x5f, 0x31, 0x31, 0x2f, 0x64, 0x65, 0x6e, 0x73, 0x65, 0x5f, 0x33, 0x30, 0x2f, 0x4d, 0x61, 0x74, 0x4d, 0x75, 0x6c, 0x00, 0x00, 0x00, 0x02, 0x00, 0x00, 0x00, 0x01, 0x00, 0x00, 0x00, 0x05, 0x00, 0x00, 0x00, 0x00, 0x00, 0x0e, 0x00, 0x18, 0x00, 0x08, 0x00, 0x07, 0x00, 0x0c, 0x00, 0x10, 0x00, 0x14, 0x00, 0x0e, 0x00, 0x00, 0x00, 0x00, 0x00, 0x00, 0x09, 0x64, 0x00, 0x00, 0x00, 0x04, 0x00, 0x00, 0x00, 0x38, 0x00, 0x00, 0x00, 0x10, 0x00, 0x00, 0x00, 0x0c, 0x00, 0x0c, 0x00, 0x00, 0x00, 0x00, 0x00, 0x04, 0x00, 0x08, 0x00, 0x0c, 0x00, 0x00, 0x00, 0x18, 0x00, 0x00, 0x00, 0x04, 0x00, 0x00, 0x00, 0x01, 0x00, 0x00, 0x00, 0x00, 0x00, 0x00, 0x00, 0x00, 0x00, 0x00, 0x00, 0x00, 0x00, 0x00, 0x00, 0x01, 0x00, 0x00, 0x00, 0x0b, 0xbb, 0xc2, 0x3a, 0x1d, 0x00, 0x00, 0x00, 0x73, 0x65, 0x71, 0x75, 0x65, 0x6e, 0x74, 0x69, 0x61, 0x6c, 0x5f, 0x31, 0x31, 0x2f, 0x64, 0x65, 0x6e, 0x73, 0x65, 0x5f, 0x32, 0x39, 0x2f, 0x4d, 0x61, 0x74, 0x4d, 0x75, 0x6c, 0x00, 0x00, 0x00, 0x02, 0x00, 0x00, 0x00, 0x05, 0x00, 0x00, 0x00, 0x90, 0x01, 0x00, 0x00, 0x56, 0xff, 0xff, 0xff, 0x48, 0x00, 0x00, 0x00, 0x03, 0x00, 0x00, 0x00, 0x0c, 0x00, 0x00, 0x00, 0x04, 0x00, 0x00, 0x00, 0x48, 0xff, 0xff, 0xff, 0x2d, 0x00, 0x00, 0x00, 0x73, 0x65, 0x71, 0x75, 0x65, 0x6e, 0x74, 0x69, 0x61, 0x6c, 0x5f, 0x31, 0x31, 0x2f, 0x64, 0x65, 0x6e, 0x73, 0x65, 0x5f, 0x33, 0x30, 0x2f, 0x42, 0x69, 0x61, 0x73, 0x41, 0x64, 0x64, 0x2f, 0x52, 0x65, 0x61, 0x64, 0x56, 0x61, 0x72, 0x69, 0x61, 0x62, 0x6c, 0x65, 0x4f, 0x70, 0x00, 0x00, 0x00, 0x01, 0x00, 0x00, 0x00, 0x01, 0x00, 0x00, 0x00, 0xaa, 0xff, 0xff, 0xff, 0x48, 0x00, 0x00, 0x00, 0x02, 0x00, 0x00, 0x00, 0x0c, 0x00, 0x00, 0x00, 0x04, 0x00, 0x00, 0x00, 0x9c, 0xff, 0xff, 0xff, 0x2d, 0x00, 0x00, 0x00, 0x73, 0x65, 0x71, 0x75, 0x65, 0x6e, 0x74, 0x69, 0x61, 0x6c, 0x5f, 0x31, 0x31, 0x2f, 0x64, 0x65, 0x6e, 0x73, 0x65, 0x5f, 0x32, 0x39, 0x2f, 0x42, 0x69, 0x61, 0x73, 0x41, 0x64, 0x64, 0x2f, 0x52, 0x65, 0x61, 0x64, 0x56, 0x61, 0x72, 0x69, 0x61, 0x62, 0x6c, 0x65, 0x4f, 0x70, 0x00, 0x00, 0x00, 0x01, 0x00, 0x00, 0x00, 0x05, 0x00, 0x00, 0x00, 0x00, 0x00, 0x0e, 0x00, 0x14, 0x00, 0x04, 0x00, 0x00, 0x00, 0x08, 0x00, 0x0c, 0x00, 0x10, 0x00, 0x0e, 0x00, 0x00, 0x00, 0x2c, 0x00, 0x00, 0x00, 0x01, 0x00, 0x00, 0x00, 0x10, 0x00, 0x00, 0x00, 0x08, 0x00, 0x00, 0x00, 0x04, 0x00, 0x04, 0x00, 0x04, 0x00, 0x00, 0x00, 0x0e, 0x00, 0x00, 0x00, 0x64, 0x65, 0x6e, 0x73, 0x65, 0x5f, 0x32, 0x39, 0x5f, 0x69, 0x6e, 0x70, 0x75, 0x74, 0x00, 0x00, 0x02, 0x00, 0x00, 0x00, 0x01, 0x00, 0x00, 0x00, 0x90, 0x01, 0x00, 0x00, 0x02, 0x00, 0x00, 0x00, 0x20, 0x00, 0x00, 0x00, 0x0c, 0x00, 0x00, 0x00, 0x00, 0x00, 0x06, 0x00, 0x06, 0x00, 0x05, 0x00, 0x06, 0x00, 0x00, 0x00, 0x00, 0x0e, 0x0a, 0x00, 0x0c, 0x00, 0x07, 0x00, 0x00, 0x00, 0x08, 0x00, 0x0a, 0x00, 0x00, 0x00, 0x00, 0x00, 0x00, 0x09, 0x03, 0x00, 0x00, 0x00};
const int model_data_len = 3216;