
#ifdef __has_attribute
#define HAVE_ATTRIBUTE(x) __has_attribute(x)
#else
#define HAVE_ATTRIBUTE(x) 0
#endif
#if HAVE_ATTRIBUTE(aligned) || (defined(__GNUC__) && !defined(__clang__))
#define DATA_ALIGN_ATTRIBUTE __attribute__((aligned(4)))
#else
#define DATA_ALIGN_ATTRIBUTE
#endif

const unsigned char model_data[] DATA_ALIGN_ATTRIBUTE = {0x08, 0x00, 0x00, 0x00, 0x54, 0x46, 0x4c, 0x33, 0x82, 0xfc, 0xff, 0xff, 0x03, 0x00, 0x00, 0x00, 0x0c, 0x08, 0x00, 0x00, 0x68, 0x03, 0x00, 0x00, 0x50, 0x03, 0x00, 0x00, 0x04, 0x00, 0x00, 0x00, 0x0c, 0x00, 0x00, 0x00, 0x40, 0x03, 0x00, 0x00, 0x38, 0x03, 0x00, 0x00, 0x00, 0x03, 0x00, 0x00, 0xd4, 0x02, 0x00, 0x00, 0xc0, 0x02, 0x00, 0x00, 0x20, 0x01, 0x00, 0x00, 0x48, 0x00, 0x00, 0x00, 0x24, 0x00, 0x00, 0x00, 0x1c, 0x00, 0x00, 0x00, 0x14, 0x00, 0x00, 0x00, 0x0c, 0x00, 0x00, 0x00, 0x04, 0x00, 0x00, 0x00, 0x60, 0xf8, 0xff, 0xff, 0x64, 0xf8, 0xff, 0xff, 0x68, 0xf8, 0xff, 0xff, 0x6c, 0xf8, 0xff, 0xff, 0x3e, 0xfd, 0xff, 0xff, 0x04, 0x00, 0x00, 0x00, 0x14, 0x00, 0x00, 0x00, 0x1e, 0x7e, 0x48, 0x3f, 0xc1, 0x1e, 0x85, 0xbe, 0xb7, 0x3c, 0x27, 0xbf, 0x41, 0xec, 0xcf, 0xbe, 0x05, 0x68, 0x95, 0xbe, 0x5e, 0xfd, 0xff, 0xff, 0x04, 0x00, 0x00, 0x00, 0xc8, 0x00, 0x00, 0x00, 0x02, 0x14, 0x88, 0xbe, 0x3c, 0xe8, 0x05, 0x3f, 0xc6, 0xd6, 0xe5, 0xbe, 0xb3, 0x6b, 0x4c, 0xbd, 0x07, 0x56, 0xaa, 0x3e, 0x0e, 0x55, 0x08, 0x3f, 0x49, 0xb7, 0x1b, 0x3e, 0x2d, 0xf4, 0x95, 0xbd, 0x4a, 0x4c, 0x0e, 0xbe, 0x3d, 0xc8, 0x08, 0xbf, 0x1c, 0x28, 0x0b, 0xbf, 0xcf, 0x63, 0x75, 0x3d, 0x75, 0x8f, 0xf6, 0x3e, 0xb0, 0xe9, 0x2e, 0xbf, 0xe5, 0x8e, 0xe0, 0x3e, 0x52, 0xf8, 0xb5, 0x3e, 0xa4, 0x9b, 0x91, 0x3e, 0x62, 0xcd, 0x73, 0xbe, 0x08, 0xd4, 0x0d, 0x3e, 0x35, 0xd9, 0x37, 0xbe, 0x9c, 0xee, 0x1c, 0xbe, 0xd9, 0xa1, 0x25, 0x3f, 0xc2, 0x6e, 0x84, 0xbe, 0x01, 0xd3, 0xac, 0xbe, 0x88, 0xd0, 0xde, 0xbc, 0x8d, 0x63, 0x48, 0xbd, 0x69, 0x46, 0xf5, 0x3e, 0x15, 0x19, 0x7b, 0x3d, 0xf6, 0x12, 0x10, 0xbf, 0x75, 0xfe, 0xd6, 0xbc, 0xc0, 0xfb, 0x67, 0xbd, 0x8f, 0x27, 0x4c, 0xbd, 0x2e, 0xcd, 0xef, 0x3e, 0xc8, 0x6d, 0xfb, 0xbe, 0x77, 0xa8, 0x27, 0xbe, 0xdb, 0x50, 0x7b, 0x3d, 0x94, 0x0c, 0xbf, 0xbe, 0x72, 0x9f, 0x78, 0x3e, 0x1c, 0x8d, 0x8e, 0xbe, 0xff, 0x90, 0x8a, 0x3e, 0x3c, 0x00, 0xff, 0xbd, 0x44, 0x80, 0x9e, 0x3d, 0x7d, 0xb4, 0xa9, 0x3d, 0xc4, 0x3a, 0xcd, 0xbe, 0x50, 0x94, 0xcd, 0x3c, 0xed, 0x80, 0x84, 0x3e, 0x93, 0x69, 0xb9, 0xbe, 0xee, 0xea, 0x2c, 0xbf, 0x76, 0x67, 0xe3, 0x3e, 0x42, 0x56, 0xe2, 0x3e, 0x32, 0xfe, 0xff, 0xff, 0x04, 0x00, 0x00, 0x00, 0x90, 0x01, 0x00, 0x00, 0xcc, 0xd5, 0x03, 0xbe, 0x7c, 0xd4, 0xfd, 0xbd, 0x01, 0x50, 0xfb, 0x3e, 0xd5, 0x02, 0x02, 0xbf, 0x1e, 0xb0, 0x33, 0x3e, 0x8d, 0x95, 0x34, 0xbd, 0x7f, 0x30, 0x87, 0xbe, 0x1c, 0x18, 0x1f, 0x3f, 0x03, 0x5a, 0xa8, 0xbe, 0x3e, 0x02, 0x44, 0x3d, 0x15, 0xd6, 0x34, 0x3d, 0xd2, 0x93, 0x8a, 0x3e, 0x20, 0x27, 0xd9, 0x3e, 0x5d, 0xf9, 0xcd, 0x3d, 0x80, 0x61, 0xfe, 0xbe, 0xe2, 0x1b, 0xbd, 0x3c, 0xbc, 0x5e, 0x09, 0x3e, 0x68, 0x46, 0xcb, 0xbd, 0x8b, 0xce, 0x97, 0x3e, 0x18, 0xec, 0xbd, 0x3e, 0xfb, 0x33, 0x0b, 0xbf, 0x91, 0x4d, 0xb8, 0xbe, 0xba, 0x87, 0xcb, 0x3d, 0x2f, 0x4e, 0x74, 0xbe, 0xfb, 0x1f, 0xdc, 0x3e, 0x43, 0x61, 0x0b, 0x3e, 0xaa, 0x25, 0xf2, 0xbe, 0x66, 0x09, 0x18, 0xbf, 0x3b, 0xd2, 0xde, 0x3e, 0xb8, 0xa5, 0x17, 0x3f, 0x74, 0xa0, 0xdc, 0x3c, 0x9c, 0x7f, 0x95, 0x3e, 0xf5, 0xa2, 0xc6, 0xbe, 0x6f, 0xa4, 0x15, 0xbf, 0x91, 0x21, 0xed, 0xbe, 0xfa, 0x41, 0x66, 0x3e, 0x44, 0x14, 0xee, 0x3e, 0xaf, 0x21, 0xa1, 0x3e, 0x55, 0xa8, 0x1e, 0xbf, 0x8f, 0x71, 0x6c, 0xbe, 0x29, 0x9a, 0xbf, 0xbe, 0xae, 0xcf, 0x04, 0xbf, 0x4d, 0x84, 0xe9, 0xbe, 0xad, 0x3a, 0xdd, 0x3e, 0xab, 0xaa, 0xd2, 0xbe, 0x77, 0x81, 0xfc, 0x3e, 0x4a, 0x70, 0xde, 0x3e, 0xf6, 0xd2, 0x90, 0x3e, 0x3b, 0x54, 0xff, 0x3e, 0x76, 0x0a, 0x17, 0x3f, 0x9d, 0x17, 0x85, 0xbd, 0x80, 0x3c, 0x8e, 0x3d, 0x17, 0x28, 0x7d, 0x3d, 0x00, 0x8d, 0xbd, 0xbe, 0xe5, 0xee, 0xd7, 0xbd, 0x85, 0xfc, 0xfa, 0xbe, 0x15, 0x82, 0xd9, 0xbe, 0x8f, 0x95, 0x82, 0xbe, 0xdb, 0xe1, 0x38, 0xbb, 0x0b, 0x2e, 0xae, 0xbe, 0x2f, 0x2a, 0xe7, 0x3c, 0x3d, 0xa9, 0x82, 0x3e, 0x79, 0x64, 0xcd, 0x3e, 0x3d, 0x34, 0x32, 0xbc, 0x52, 0x6a, 0x87, 0xbe, 0xdb, 0xfe, 0x8e, 0xbe, 0x19, 0x75, 0x41, 0xbd, 0xcc, 0xeb, 0x9a, 0x3e, 0xa2, 0xc1, 0x84, 0xbe, 0x95, 0x42, 0xe3, 0x3e, 0xd3, 0x56, 0x10, 0x3f, 0xc1, 0xb0, 0x93, 0xbe, 0x65, 0xa8, 0x4b, 0x3e, 0x33, 0xe6, 0x88, 0xbe, 0x27, 0xe7, 0x51, 0x3e, 0xcb, 0xa2, 0x88, 0x3d, 0x09, 0x31, 0xef, 0xbc, 0x9c, 0xad, 0x01, 0x3e, 0xdc, 0x7b, 0x89, 0x3b, 0x0b, 0x26, 0x8d, 0x3e, 0x62, 0x95, 0x22, 0xbf, 0xca, 0xf9, 0xd4, 0x3e, 0x8f, 0x47, 0x77, 0xbe, 0xb3, 0xe8, 0x00, 0x3e, 0x8d, 0x8b, 0xb0, 0x3e, 0xbe, 0x45, 0xbb, 0x3e, 0x2a, 0x52, 0x68, 0xbe, 0xc8, 0xbd, 0xb8, 0x3d, 0x02, 0xa7, 0xde, 0xbc, 0x55, 0x19, 0x9c, 0x3d, 0x19, 0xc1, 0x96, 0x3e, 0xed, 0xba, 0xcc, 0xbe, 0x02, 0x58, 0x60, 0x3e, 0xdc, 0xc2, 0x53, 0x3d, 0x37, 0x3b, 0x35, 0xbd, 0x8a, 0x1a, 0x37, 0xbd, 0x55, 0x59, 0xd0, 0xbd, 0x08, 0xff, 0x99, 0xbe, 0x42, 0x2a, 0xb4, 0x3e, 0x5c, 0x9b, 0xe7, 0x3e, 0xce, 0xff, 0xff, 0xff, 0x04, 0x00, 0x00, 0x00, 0x04, 0x00, 0x00, 0x00, 0x11, 0x1a, 0xfd, 0x3d, 0xde, 0xff, 0xff, 0xff, 0x04, 0x00, 0x00, 0x00, 0x14, 0x00, 0x00, 0x00, 0x26, 0xd1, 0xd0, 0xbc, 0x7d, 0xda, 0x4d, 0xbd, 0x23, 0xdb, 0x33, 0x3c, 0xc1, 0xae, 0x24, 0xbe, 0xac, 0x3c, 0x0e, 0xbd, 0x00, 0x00, 0x06, 0x00, 0x08, 0x00, 0x04, 0x00, 0x06, 0x00, 0x00, 0x00, 0x04, 0x00, 0x00, 0x00, 0x28, 0x00, 0x00, 0x00, 0x6b, 0xd7, 0xe7, 0x3d, 0x73, 0xec, 0x6c, 0xbc, 0x67, 0x81, 0x08, 0xbe, 0xc1, 0xbe, 0x20, 0x3e, 0x39, 0x70, 0x7e, 0xbc, 0x13, 0x11, 0xac, 0xbd, 0x12, 0xa3, 0xff, 0xbc, 0xa5, 0x6a, 0x15, 0xbe, 0x73, 0xd7, 0x5e, 0xbc, 0x7c, 0x3c, 0x11, 0xbe, 0x6c, 0xfb, 0xff, 0xff, 0x70, 0xfb, 0xff, 0xff, 0x0f, 0x00, 0x00, 0x00, 0x4d, 0x4c, 0x49, 0x52, 0x20, 0x43, 0x6f, 0x6e, 0x76, 0x65, 0x72, 0x74, 0x65, 0x64, 0x2e, 0x00, 0x01, 0x00, 0x00, 0x00, 0x14, 0x00, 0x00, 0x00, 0x00, 0x00, 0x0e, 0x00, 0x18, 0x00, 0x04, 0x00, 0x08, 0x00, 0x0c, 0x00, 0x10, 0x00, 0x14, 0x00, 0x0e, 0x00, 0x00, 0x00, 0x30, 0x01, 0x00, 0x00, 0x24, 0x01, 0x00, 0x00, 0x18, 0x01, 0x00, 0x00, 0x14, 0x00, 0x00, 0x00, 0x04, 0x00, 0x00, 0x00, 0x04, 0x00, 0x00, 0x00, 0x6d, 0x61, 0x69, 0x6e, 0x00, 0x00, 0x00, 0x00, 0x04, 0x00, 0x00, 0x00, 0xc0, 0x00, 0x00, 0x00, 0x78, 0x00, 0x00, 0x00, 0x34, 0x00, 0x00, 0x00, 0x10, 0x00, 0x00, 0x00, 0x00, 0x00, 0x0a, 0x00, 0x10, 0x00, 0x04, 0x00, 0x08, 0x00, 0x0c, 0x00, 0x0a, 0x00, 0x00, 0x00, 0x01, 0x00, 0x00, 0x00, 0x10, 0x00, 0x00, 0x00, 0x04, 0x00, 0x00, 0x00, 0x01, 0x00, 0x00, 0x00, 0x0a, 0x00, 0x00, 0x00, 0x01, 0x00, 0x00, 0x00, 0x09, 0x00, 0x00, 0x00, 0xce, 0xff, 0xff, 0xff, 0x00, 0x00, 0x00, 0x08, 0x18, 0x00, 0x00, 0x00, 0x0c, 0x00, 0x00, 0x00, 0x04, 0x00, 0x00, 0x00, 0x18, 0xfc, 0xff, 0xff, 0x01, 0x00, 0x00, 0x00, 0x09, 0x00, 0x00, 0x00, 0x03, 0x00, 0x00, 0x00, 0x08, 0x00, 0x00, 0x00, 0x06, 0x00, 0x00, 0x00, 0x03, 0x00, 0x00, 0x00, 0x00, 0x00, 0x0e, 0x00, 0x14, 0x00, 0x00, 0x00, 0x08, 0x00, 0x0c, 0x00, 0x07, 0x00, 0x10, 0x00, 0x0e, 0x00, 0x00, 0x00, 0x00, 0x00, 0x00, 0x08, 0x1c, 0x00, 0x00, 0x00, 0x10, 0x00, 0x00, 0x00, 0x04, 0x00, 0x00, 0x00, 0xba, 0xff, 0xff, 0xff, 0x00, 0x00, 0x00, 0x01, 0x01, 0x00, 0x00, 0x00, 0x08, 0x00, 0x00, 0x00, 0x03, 0x00, 0x00, 0x00, 0x07, 0x00, 0x00, 0x00, 0x05, 0x00, 0x00, 0x00, 0x02, 0x00, 0x00, 0x00, 0x00, 0x00, 0x0e, 0x00, 0x16, 0x00, 0x00, 0x00, 0x08, 0x00, 0x0c, 0x00, 0x07, 0x00, 0x10, 0x00, 0x0e, 0x00, 0x00, 0x00, 0x00, 0x00, 0x00, 0x08, 0x24, 0x00, 0x00, 0x00, 0x18, 0x00, 0x00, 0x00, 0x0c, 0x00, 0x00, 0x00, 0x00, 0x00, 0x06, 0x00, 0x08, 0x00, 0x07, 0x00, 0x06, 0x00, 0x00, 0x00, 0x00, 0x00, 0x00, 0x01, 0x01, 0x00, 0x00, 0x00, 0x07, 0x00, 0x00, 0x00, 0x03, 0x00, 0x00, 0x00, 0x00, 0x00, 0x00, 0x00, 0x04, 0x00, 0x00, 0x00, 0x01, 0x00, 0x00, 0x00, 0x01, 0x00, 0x00, 0x00, 0x0a, 0x00, 0x00, 0x00, 0x01, 0x00, 0x00, 0x00, 0x00, 0x00, 0x00, 0x00, 0x0b, 0x00, 0x00, 0x00, 0x14, 0x03, 0x00, 0x00, 0xac, 0x02, 0x00, 0x00, 0x54, 0x02, 0x00, 0x00, 0xfc, 0x01, 0x00, 0x00, 0xb0, 0x01, 0x00, 0x00, 0x64, 0x01, 0x00, 0x00, 0x18, 0x01, 0x00, 0x00, 0xd0, 0x00, 0x00, 0x00, 0x88, 0x00, 0x00, 0x00, 0x3c, 0x00, 0x00, 0x00, 0x04, 0x00, 0x00, 0x00, 0x26, 0xfd, 0xff, 0xff, 0x24, 0x00, 0x00, 0x00, 0x0b, 0x00, 0x00, 0x00, 0x0c, 0x00, 0x00, 0x00, 0x04, 0x00, 0x00, 0x00, 0x18, 0xfd, 0xff, 0xff, 0x08, 0x00, 0x00, 0x00, 0x49, 0x64, 0x65, 0x6e, 0x74, 0x69, 0x74, 0x79, 0x00, 0x00, 0x00, 0x00, 0x02, 0x00, 0x00, 0x00, 0x01, 0x00, 0x00, 0x00, 0x01, 0x00, 0x00, 0x00, 0x5a, 0xfd, 0xff, 0xff, 0x38, 0x00, 0x00, 0x00, 0x0a, 0x00, 0x00, 0x00, 0x0c, 0x00, 0x00, 0x00, 0x04, 0x00, 0x00, 0x00, 0x4c, 0xfd, 0xff, 0xff, 0x1e, 0x00, 0x00, 0x00, 0x73, 0x65, 0x71, 0x75, 0x65, 0x6e, 0x74, 0x69, 0x61, 0x6c, 0x5f, 0x31, 0x34, 0x2f, 0x64, 0x65, 0x6e, 0x73, 0x65, 0x5f, 0x33, 0x36, 0x2f, 0x42, 0x69, 0x61, 0x73, 0x41, 0x64, 0x64, 0x00, 0x00, 0x02, 0x00, 0x00, 0x00, 0x01, 0x00, 0x00, 0x00, 0x01, 0x00, 0x00, 0x00, 0xa2, 0xfd, 0xff, 0xff, 0x34, 0x00, 0x00, 0x00, 0x09, 0x00, 0x00, 0x00, 0x0c, 0x00, 0x00, 0x00, 0x04, 0x00, 0x00, 0x00, 0x94, 0xfd, 0xff, 0xff, 0x1b, 0x00, 0x00, 0x00, 0x73, 0x65, 0x71, 0x75, 0x65, 0x6e, 0x74, 0x69, 0x61, 0x6c, 0x5f, 0x31, 0x34, 0x2f, 0x64, 0x65, 0x6e, 0x73, 0x65, 0x5f, 0x33, 0x35, 0x2f, 0x52, 0x65, 0x6c, 0x75, 0x00, 0x02, 0x00, 0x00, 0x00, 0x01, 0x00, 0x00, 0x00, 0x05, 0x00, 0x00, 0x00, 0xe6, 0xfd, 0xff, 0xff, 0x34, 0x00, 0x00, 0x00, 0x08, 0x00, 0x00, 0x00, 0x0c, 0x00, 0x00, 0x00, 0x04, 0x00, 0x00, 0x00, 0xd8, 0xfd, 0xff, 0xff, 0x1b, 0x00, 0x00, 0x00, 0x73, 0x65, 0x71, 0x75, 0x65, 0x6e, 0x74, 0x69, 0x61, 0x6c, 0x5f, 0x31, 0x34, 0x2f, 0x64, 0x65, 0x6e, 0x73, 0x65, 0x5f, 0x33, 0x34, 0x2f, 0x52, 0x65, 0x6c, 0x75, 0x00, 0x02, 0x00, 0x00, 0x00, 0x01, 0x00, 0x00, 0x00, 0x0a, 0x00, 0x00, 0x00, 0x2a, 0xfe, 0xff, 0xff, 0x38, 0x00, 0x00, 0x00, 0x07, 0x00, 0x00, 0x00, 0x0c, 0x00, 0x00, 0x00, 0x04, 0x00, 0x00, 0x00, 0x1c, 0xfe, 0xff, 0xff, 0x1d, 0x00, 0x00, 0x00, 0x73, 0x65, 0x71, 0x75, 0x65, 0x6e, 0x74, 0x69, 0x61, 0x6c, 0x5f, 0x31, 0x34, 0x2f, 0x64, 0x65, 0x6e, 0x73, 0x65, 0x5f, 0x33, 0x36, 0x2f, 0x4d, 0x61, 0x74, 0x4d, 0x75, 0x6c, 0x00, 0x00, 0x00, 0x02, 0x00, 0x00, 0x00, 0x01, 0x00, 0x00, 0x00, 0x05, 0x00, 0x00, 0x00, 0x72, 0xfe, 0xff, 0xff, 0x38, 0x00, 0x00, 0x00, 0x06, 0x00, 0x00, 0x00, 0x0c, 0x00, 0x00, 0x00, 0x04, 0x00, 0x00, 0x00, 0x64, 0xfe, 0xff, 0xff, 0x1d, 0x00, 0x00, 0x00, 0x73, 0x65, 0x71, 0x75, 0x65, 0x6e, 0x74, 0x69, 0x61, 0x6c, 0x5f, 0x31, 0x34, 0x2f, 0x64, 0x65, 0x6e, 0x73, 0x65, 0x5f, 0x33, 0x35, 0x2f, 0x4d, 0x61, 0x74, 0x4d, 0x75, 0x6c, 0x00, 0x00, 0x00, 0x02, 0x00, 0x00, 0x00, 0x05, 0x00, 0x00, 0x00, 0x0a, 0x00, 0x00, 0x00, 0xba, 0xfe, 0xff, 0xff, 0x38, 0x00, 0x00, 0x00, 0x05, 0x00, 0x00, 0x00, 0x0c, 0x00, 0x00, 0x00, 0x04, 0x00, 0x00, 0x00, 0xac, 0xfe, 0xff, 0xff, 0x1d, 0x00, 0x00, 0x00, 0x73, 0x65, 0x71, 0x75, 0x65, 0x6e, 0x74, 0x69, 0x61, 0x6c, 0x5f, 0x31, 0x34, 0x2f, 0x64, 0x65, 0x6e, 0x73, 0x65, 0x5f, 0x33, 0x34, 0x2f, 0x4d, 0x61, 0x74, 0x4d, 0x75, 0x6c, 0x00, 0x00, 0x00, 0x02, 0x00, 0x00, 0x00, 0x0a, 0x00, 0x00, 0x00, 0x0a, 0x00, 0x00, 0x00, 0x02, 0xff, 0xff, 0xff, 0x48, 0x00, 0x00, 0x00, 0x04, 0x00, 0x00, 0x00, 0x0c, 0x00, 0x00, 0x00, 0x04, 0x00, 0x00, 0x00, 0xf4, 0xfe, 0xff, 0xff, 0x2d, 0x00, 0x00, 0x00, 0x73, 0x65, 0x71, 0x75, 0x65, 0x6e, 0x74, 0x69, 0x61, 0x6c, 0x5f, 0x31, 0x34, 0x2f, 0x64, 0x65, 0x6e, 0x73, 0x65, 0x5f, 0x33, 0x36, 0x2f, 0x42, 0x69, 0x61, 0x73, 0x41, 0x64, 0x64, 0x2f, 0x52, 0x65, 0x61, 0x64, 0x56, 0x61, 0x72, 0x69, 0x61, 0x62, 0x6c, 0x65, 0x4f, 0x70, 0x00, 0x00, 0x00, 0x01, 0x00, 0x00, 0x00, 0x01, 0x00, 0x00, 0x00, 0x56, 0xff, 0xff, 0xff, 0x48, 0x00, 0x00, 0x00, 0x03, 0x00, 0x00, 0x00, 0x0c, 0x00, 0x00, 0x00, 0x04, 0x00, 0x00, 0x00, 0x48, 0xff, 0xff, 0xff, 0x2d, 0x00, 0x00, 0x00, 0x73, 0x65, 0x71, 0x75, 0x65, 0x6e, 0x74, 0x69, 0x61, 0x6c, 0x5f, 0x31, 0x34, 0x2f, 0x64, 0x65, 0x6e, 0x73, 0x65, 0x5f, 0x33, 0x35, 0x2f, 0x42, 0x69, 0x61, 0x73, 0x41, 0x64, 0x64, 0x2f, 0x52, 0x65, 0x61, 0x64, 0x56, 0x61, 0x72, 0x69, 0x61, 0x62, 0x6c, 0x65, 0x4f, 0x70, 0x00, 0x00, 0x00, 0x01, 0x00, 0x00, 0x00, 0x05, 0x00, 0x00, 0x00, 0xaa, 0xff, 0xff, 0xff, 0x48, 0x00, 0x00, 0x00, 0x02, 0x00, 0x00, 0x00, 0x0c, 0x00, 0x00, 0x00, 0x04, 0x00, 0x00, 0x00, 0x9c, 0xff, 0xff, 0xff, 0x2d, 0x00, 0x00, 0x00, 0x73, 0x65, 0x71, 0x75, 0x65, 0x6e, 0x74, 0x69, 0x61, 0x6c, 0x5f, 0x31, 0x34, 0x2f, 0x64, 0x65, 0x6e, 0x73, 0x65, 0x5f, 0x33, 0x34, 0x2f, 0x42, 0x69, 0x61, 0x73, 0x41, 0x64, 0x64, 0x2f, 0x52, 0x65, 0x61, 0x64, 0x56, 0x61, 0x72, 0x69, 0x61, 0x62, 0x6c, 0x65, 0x4f, 0x70, 0x00, 0x00, 0x00, 0x01, 0x00, 0x00, 0x00, 0x0a, 0x00, 0x00, 0x00, 0x00, 0x00, 0x0e, 0x00, 0x14, 0x00, 0x04, 0x00, 0x00, 0x00, 0x08, 0x00, 0x0c, 0x00, 0x10, 0x00, 0x0e, 0x00, 0x00, 0x00, 0x2c, 0x00, 0x00, 0x00, 0x01, 0x00, 0x00, 0x00, 0x10, 0x00, 0x00, 0x00, 0x08, 0x00, 0x00, 0x00, 0x04, 0x00, 0x04, 0x00, 0x04, 0x00, 0x00, 0x00, 0x0e, 0x00, 0x00, 0x00, 0x64, 0x65, 0x6e, 0x73, 0x65, 0x5f, 0x33, 0x34, 0x5f, 0x69, 0x6e, 0x70, 0x75, 0x74, 0x00, 0x00, 0x02, 0x00, 0x00, 0x00, 0x01, 0x00, 0x00, 0x00, 0x0a, 0x00, 0x00, 0x00, 0x02, 0x00, 0x00, 0x00, 0x20, 0x00, 0x00, 0x00, 0x0c, 0x00, 0x00, 0x00, 0x00, 0x00, 0x06, 0x00, 0x06, 0x00, 0x05, 0x00, 0x06, 0x00, 0x00, 0x00, 0x00, 0x0e, 0x0a, 0x00, 0x0c, 0x00, 0x07, 0x00, 0x00, 0x00, 0x08, 0x00, 0x0a, 0x00, 0x00, 0x00, 0x00, 0x00, 0x00, 0x09, 0x03, 0x00, 0x00, 0x00};
const int model_data_len = 2124;