
#ifdef __has_attribute
#define HAVE_ATTRIBUTE(x) __has_attribute(x)
#else
#define HAVE_ATTRIBUTE(x) 0
#endif
#if HAVE_ATTRIBUTE(aligned) || (defined(__GNUC__) && !defined(__clang__))
#define DATA_ALIGN_ATTRIBUTE __attribute__((aligned(4)))
#else
#define DATA_ALIGN_ATTRIBUTE
#endif

const unsigned char model_data[] DATA_ALIGN_ATTRIBUTE = {0x08, 0x00, 0x00, 0x00, 0x54, 0x46, 0x4c, 0x33, 0x5a, 0xf7, 0xff, 0xff, 0x03, 0x00, 0x00, 0x00, 0x00, 0x0c, 0x00, 0x00, 0x90, 0x08, 0x00, 0x00, 0x78, 0x08, 0x00, 0x00, 0x04, 0x00, 0x00, 0x00, 0x09, 0x00, 0x00, 0x00, 0x68, 0x08, 0x00, 0x00, 0x60, 0x08, 0x00, 0x00, 0x3c, 0x08, 0x00, 0x00, 0x20, 0x08, 0x00, 0x00, 0x40, 0x00, 0x00, 0x00, 0x1c, 0x00, 0x00, 0x00, 0x14, 0x00, 0x00, 0x00, 0x0c, 0x00, 0x00, 0x00, 0x04, 0x00, 0x00, 0x00, 0x60, 0xf4, 0xff, 0xff, 0x64, 0xf4, 0xff, 0xff, 0x68, 0xf4, 0xff, 0xff, 0xf2, 0xf7, 0xff, 0xff, 0x04, 0x00, 0x00, 0x00, 0x14, 0x00, 0x00, 0x00, 0x78, 0x2b, 0x31, 0x3f, 0x1e, 0xa9, 0x0e, 0xbe, 0x42, 0xf0, 0x08, 0xbf, 0x91, 0x91, 0x49, 0xbe, 0xc2, 0x16, 0xb8, 0x3e, 0x12, 0xf8, 0xff, 0xff, 0x04, 0x00, 0x00, 0x00, 0xd0, 0x07, 0x00, 0x00, 0x56, 0xf9, 0x89, 0x3e, 0x9a, 0x28, 0x2b, 0x3e, 0xef, 0xe1, 0x1f, 0x3e, 0x31, 0x38, 0xc1, 0xbb, 0x84, 0xe0, 0x39, 0x3e, 0x9a, 0x10, 0xb4, 0x3d, 0x19, 0x16, 0x1b, 0x3e, 0xc5, 0x9e, 0x34, 0xbe, 0x66, 0x6c, 0x6b, 0xbe, 0x3c, 0xe9, 0x93, 0x3d, 0x17, 0xe5, 0x45, 0x3e, 0x0d, 0xcc, 0x83, 0x3e, 0x42, 0xf4, 0x29, 0x3e, 0xf3, 0xfe, 0x4b, 0x3e, 0x06, 0xb3, 0xc0, 0x3d, 0x0a, 0xf0, 0x0a, 0x3e, 0x4c, 0x01, 0x89, 0xbd, 0x53, 0x98, 0xc3, 0x3c, 0x1d, 0x9b, 0x9c, 0xbc, 0xfc, 0xe2, 0x54, 0x3e, 0x3d, 0x99, 0xbf, 0xbc, 0x62, 0x8a, 0xc3, 0x3d, 0x18, 0xb2, 0x26, 0x3e, 0x15, 0xcb, 0x33, 0x3e, 0x3a, 0xce, 0xb2, 0xbc, 0x46, 0xdc, 0xac, 0xbd, 0xe2, 0xdd, 0xe1, 0xbd, 0x32, 0x51, 0xd7, 0x3c, 0x66, 0x2d, 0x0c, 0xbd, 0xca, 0xb5, 0x9f, 0xbd, 0x7a, 0xb5, 0xd5, 0xbd, 0x26, 0x82, 0x3e, 0x3e, 0x0e, 0xec, 0x8f, 0x3d, 0xad, 0x90, 0x34, 0xbe, 0x68, 0x5b, 0x09, 0xbe, 0xaf, 0x65, 0x8a, 0x3e, 0x8a, 0x8a, 0xb0, 0x3d, 0xef, 0x97, 0x83, 0x3e, 0x2e, 0x5b, 0x06, 0x3e, 0xc1, 0x6d, 0xbf, 0x3c, 0x79, 0x42, 0x24, 0x3e, 0x5a, 0xc4, 0x18, 0xbe, 0x21, 0x52, 0x0c, 0xbe, 0x79, 0xd6, 0xfd, 0xbd, 0xad, 0xca, 0xd8, 0x3d, 0x0d, 0xa1, 0xc3, 0x3d, 0x8e, 0xba, 0x0d, 0x3e, 0x62, 0xdc, 0x83, 0xbe, 0x82, 0xdb, 0xd1, 0x3c, 0x1a, 0xff, 0x30, 0xbe, 0x0b, 0x98, 0x88, 0xbe, 0x8a, 0x97, 0xdb, 0x3d, 0x5a, 0x3d, 0x5d, 0xbe, 0x91, 0xe6, 0xc5, 0x3d, 0x3e, 0x4a, 0x45, 0xbe, 0x9f, 0x02, 0xa3, 0x3d, 0x10, 0x2e, 0x80, 0x3e, 0x5a, 0xd6, 0x17, 0x3e, 0x4d, 0xf2, 0xb2, 0xbd, 0x35, 0x9a, 0xde, 0xbc, 0x62, 0x93, 0xfe, 0x3b, 0x0b, 0x64, 0x23, 0x3e, 0x3d, 0xee, 0x5b, 0xbe, 0x7a, 0x16, 0x37, 0xbe, 0xd1, 0x59, 0xbe, 0x3c, 0xf9, 0xc5, 0xb9, 0x3c, 0xe6, 0x95, 0xe7, 0xbc, 0x09, 0x0e, 0x54, 0x3e, 0xde, 0xb2, 0x29, 0x3e, 0xed, 0x85, 0x30, 0x3d, 0x2a, 0x18, 0x50, 0xbe, 0x33, 0x82, 0xc0, 0xbd, 0xbd, 0xd9, 0x4b, 0xbe, 0xf2, 0x7c, 0x66, 0x3e, 0xc3, 0x08, 0x36, 0xbe, 0xbe, 0x7a, 0xcb, 0xbd, 0x79, 0x92, 0x58, 0xbe, 0x65, 0xb0, 0xef, 0x3d, 0x21, 0xb7, 0x81, 0x3c, 0xa5, 0x46, 0x87, 0x3c, 0x92, 0x4a, 0x16, 0x3e, 0x6b, 0x27, 0xba, 0xbc, 0x95, 0x3c, 0x6a, 0xbe, 0x9a, 0xde, 0x3f, 0x3e, 0xc3, 0x23, 0xca, 0x3d, 0x54, 0x70, 0xe0, 0xbd, 0x7e, 0xb6, 0x2a, 0xbe, 0x13, 0x4e, 0xb1, 0xbd, 0x2a, 0xbc, 0x46, 0x3e, 0xed, 0x36, 0x94, 0xbc, 0x77, 0x0c, 0x2f, 0xbe, 0x61, 0x39, 0xc8, 0x3d, 0x4b, 0x5e, 0x21, 0xbe, 0x30, 0x79, 0x23, 0xbe, 0xd5, 0x8d, 0x92, 0x3d, 0x1c, 0x3e, 0x68, 0xbd, 0xe7, 0x27, 0x7e, 0x3d, 0x79, 0xea, 0x28, 0x3e, 0xf0, 0x7d, 0x72, 0x3e, 0x32, 0x4b, 0x80, 0xbe, 0x98, 0xfb, 0x45, 0xbe, 0x84, 0xda, 0x07, 0x3e, 0xaa, 0x90, 0x37, 0x3d, 0x25, 0x84, 0x57, 0xbe, 0xe2, 0xc1, 0x08, 0xbe, 0x0b, 0x12, 0x8f, 0xbe, 0xd1, 0x65, 0x40, 0xbe, 0xe1, 0x4f, 0x12, 0x3e, 0x76, 0x08, 0x59, 0xbd, 0x04, 0xb4, 0x2b, 0x3d, 0xa9, 0x04, 0xe0, 0x3d, 0x29, 0x8d, 0xff, 0x3d, 0x68, 0x94, 0x80, 0xbe, 0xd8, 0x69, 0x29, 0xbc, 0x87, 0x48, 0xf6, 0x3c, 0x87, 0xcb, 0x30, 0xbe, 0x7a, 0xdd, 0xd9, 0x3d, 0x7b, 0xbb, 0x01, 0xbe, 0xd1, 0xe9, 0x25, 0x3d, 0xfc, 0x41, 0xee, 0xbd, 0x15, 0x12, 0x4c, 0x3e, 0xf6, 0x96, 0x24, 0xbe, 0x0a, 0xc6, 0x8c, 0xbe, 0x3b, 0x7e, 0x0d, 0xbe, 0x1c, 0xcd, 0x91, 0xbe, 0x5d, 0x4f, 0x32, 0x3d, 0xda, 0x07, 0x45, 0xbd, 0xa2, 0xda, 0x56, 0xbb, 0xa5, 0xd5, 0x31, 0x3d, 0x77, 0xfb, 0xd8, 0xbd, 0x54, 0x4b, 0x59, 0x3e, 0x53, 0xcd, 0x31, 0x3e, 0x10, 0x17, 0xc0, 0xbd, 0x91, 0x8b, 0x97, 0xbd, 0x7d, 0xce, 0x25, 0xbe, 0x28, 0x6b, 0x11, 0x3e, 0xbd, 0x2e, 0x42, 0xbd, 0xae, 0xbd, 0x8a, 0x3d, 0x85, 0xd4, 0xab, 0x3d, 0x2c, 0xa3, 0x4a, 0xbe, 0xf4, 0x06, 0xe2, 0xbd, 0x9c, 0xc7, 0x0d, 0xbd, 0xb4, 0xde, 0x26, 0x3e, 0x28, 0xca, 0x06, 0x3e, 0x66, 0x82, 0x17, 0xbe, 0x42, 0x34, 0x91, 0xbe, 0xd2, 0xd6, 0x8c, 0x3c, 0xa5, 0xd5, 0xb4, 0xbd, 0x30, 0xb2, 0xeb, 0xbd, 0xe8, 0xa6, 0x55, 0xbe, 0x31, 0x0e, 0x57, 0xbe, 0x04, 0x58, 0x08, 0x3d, 0x48, 0x08, 0xb4, 0xbc, 0x00, 0x11, 0x7c, 0xbd, 0x0d, 0xda, 0x1c, 0x3c, 0x8c, 0x44, 0x01, 0xbd, 0x47, 0x95, 0xa6, 0x3c, 0xe3, 0x2c, 0x3f, 0x3d, 0xaf, 0x3f, 0xd0, 0xbb, 0x0f, 0xc1, 0x5d, 0xbd, 0xa2, 0x5e, 0x16, 0xbe, 0x8d, 0xa3, 0xf5, 0xbd, 0x3f, 0x60, 0xb0, 0x3e, 0xcf, 0xce, 0x92, 0x3e, 0xfd, 0x9b, 0x27, 0x3e, 0xf4, 0x90, 0x45, 0x3d, 0xbf, 0xc3, 0xfd, 0x3c, 0x7c, 0x20, 0xf7, 0x3d, 0x95, 0xfc, 0x82, 0x3e, 0x1d, 0x55, 0x8f, 0x3d, 0xf4, 0x52, 0x3a, 0xbe, 0xae, 0x83, 0x91, 0xbe, 0x20, 0xab, 0x9f, 0xbd, 0xe9, 0xfe, 0x12, 0xbe, 0x54, 0xfb, 0x4b, 0x3e, 0x57, 0x2d, 0x85, 0x3e, 0x1d, 0x75, 0xc3, 0x3e, 0x84, 0xb5, 0x68, 0xbc, 0x72, 0x7a, 0x6c, 0x3e, 0xb6, 0xf9, 0xfa, 0xbd, 0xad, 0x39, 0x75, 0xbe, 0x66, 0x24, 0x29, 0xbe, 0x7f, 0x64, 0x0c, 0xbe, 0x60, 0xb0, 0xf5, 0x3d, 0x6a, 0xdd, 0x49, 0x3e, 0xe3, 0x09, 0x71, 0x3e, 0x83, 0x30, 0x9a, 0x3d, 0x91, 0x1e, 0x90, 0x3e, 0xfd, 0x0f, 0xa4, 0xbd, 0x45, 0xb5, 0x64, 0xbe, 0xfa, 0x42, 0xc2, 0x3b, 0x74, 0x6d, 0x0a, 0x3e, 0x6d, 0x36, 0x47, 0x3e, 0x21, 0x62, 0xfe, 0x3d, 0x23, 0x84, 0x55, 0x3e, 0xf7, 0x83, 0x84, 0xbd, 0x63, 0xb2, 0x83, 0x3e, 0xee, 0x70, 0x1d, 0x3e, 0x47, 0x6d, 0x4a, 0xbe, 0xd6, 0x4c, 0xcc, 0x3d, 0xb7, 0x59, 0x82, 0x3d, 0x4a, 0xc9, 0x1d, 0x3d, 0xc2, 0xe9, 0x89, 0x3d, 0x1a, 0x09, 0x9b, 0x3c, 0xdf, 0x8b, 0x50, 0xbe, 0x26, 0x41, 0x8a, 0xbe, 0x65, 0x03, 0x57, 0xbd, 0x81, 0x29, 0x81, 0xbe, 0x82, 0xbc, 0x1f, 0xbe, 0x77, 0xb2, 0x23, 0x3c, 0x15, 0xc3, 0x40, 0xbe, 0x5e, 0x79, 0x61, 0x3d, 0x47, 0xb9, 0x0f, 0xbe, 0xc4, 0x65, 0x14, 0x3c, 0x7d, 0xae, 0x0e, 0x3e, 0xed, 0x2b, 0x9e, 0xbd, 0x58, 0x2b, 0xbf, 0x3a, 0x9e, 0x3a, 0x68, 0x3c, 0xbc, 0xb5, 0xcd, 0x3c, 0x3a, 0x5c, 0x22, 0x3d, 0x40, 0xd5, 0x89, 0xbd, 0x7f, 0xc1, 0x48, 0xbd, 0xa0, 0xaa, 0x67, 0xbe, 0x4b, 0x54, 0xe6, 0xbd, 0xd2, 0x4b, 0x55, 0xbe, 0xfa, 0x6a, 0xd7, 0x3c, 0xa7, 0x69, 0x14, 0x3e, 0x59, 0x54, 0x08, 0xbe, 0xb5, 0x3c, 0x58, 0xbe, 0xe8, 0x99, 0x39, 0xbe, 0xcb, 0x82, 0x73, 0x3e, 0x50, 0xac, 0x49, 0xbe, 0x2e, 0x01, 0x94, 0xbd, 0x93, 0xbe, 0x57, 0xbe, 0xa1, 0x35, 0x04, 0x3e, 0x83, 0xea, 0x73, 0x3d, 0x3d, 0xad, 0xc3, 0xbd, 0x73, 0x8c, 0x46, 0x3d, 0x23, 0x31, 0x6f, 0x3d, 0x5e, 0xd1, 0x04, 0x3d, 0x6a, 0x71, 0x32, 0xbe, 0xbd, 0xe1, 0xc2, 0xbd, 0x85, 0x3a, 0xb6, 0x3d, 0x0e, 0xde, 0xb9, 0xbd, 0x13, 0x33, 0xae, 0x3d, 0x5b, 0x76, 0x5a, 0x3e, 0x15, 0xe2, 0xfd, 0x3d, 0xe2, 0x1c, 0xcf, 0x3d, 0x5b, 0xfc, 0xae, 0xbc, 0xc9, 0x6d, 0xd2, 0xbd, 0x62, 0x83, 0x8c, 0xbd, 0x2a, 0x59, 0x1c, 0x3e, 0x9e, 0x79, 0x35, 0xbe, 0x66, 0xee, 0x99, 0xbd, 0x6e, 0xa9, 0x81, 0xbd, 0x12, 0xfa, 0x1d, 0xbe, 0xab, 0x82, 0x0a, 0xbe, 0xb4, 0x4a, 0x22, 0xbe, 0xaa, 0x7e, 0xd5, 0xbd, 0x1e, 0x03, 0x10, 0xbe, 0xb9, 0xe3, 0x4b, 0x3e, 0xf5, 0x59, 0x15, 0x3e, 0x36, 0xe9, 0xd4, 0xbd, 0xa6, 0xd7, 0x92, 0xbd, 0x9e, 0x6f, 0xbc, 0xbd, 0xcb, 0xc0, 0x99, 0x3c, 0x5c, 0xec, 0x72, 0x3e, 0xaa, 0xcf, 0xbc, 0xbd, 0xb5, 0x90, 0x73, 0xbe, 0x61, 0xc5, 0x51, 0x3e, 0x9c, 0xf2, 0x04, 0x3e, 0xac, 0x6e, 0xad, 0x3d, 0x86, 0x83, 0x09, 0xbd, 0xc4, 0x25, 0x83, 0x3e, 0x8b, 0x20, 0x78, 0x3e, 0xaf, 0xd9, 0x0f, 0xbe, 0x13, 0x6b, 0x8c, 0x3d, 0x16, 0xfc, 0xfd, 0xbd, 0x6a, 0xb0, 0x19, 0x3e, 0xbf, 0x1d, 0xb1, 0xbd, 0x4d, 0xe5, 0xa2, 0x3d, 0xc5, 0xba, 0x5b, 0x3e, 0x48, 0xcc, 0xb8, 0xbd, 0x32, 0x06, 0x15, 0x3e, 0xd8, 0x44, 0x24, 0xbe, 0x89, 0x28, 0x0d, 0x3e, 0xe1, 0x56, 0x98, 0xbd, 0x5d, 0x3d, 0xec, 0x3d, 0x25, 0xf5, 0x9f, 0x3e, 0x1f, 0xbc, 0xef, 0x3d, 0x2f, 0xdb, 0x60, 0xbe, 0x26, 0xc9, 0x71, 0xbe, 0x9f, 0x41, 0xa1, 0x3d, 0xcb, 0xe5, 0x21, 0xbe, 0x55, 0x5f, 0x32, 0x3d, 0x15, 0x74, 0xa4, 0xbd, 0xa4, 0x78, 0x46, 0x3e, 0x42, 0x09, 0xfc, 0xbd, 0x9c, 0x13, 0x7a, 0x3e, 0x03, 0x1a, 0x18, 0xbe, 0x54, 0x31, 0x3f, 0x3e, 0x41, 0x45, 0x87, 0xbd, 0x51, 0x7f, 0xcb, 0xbd, 0xf2, 0xb8, 0x85, 0x3c, 0x71, 0x59, 0xf9, 0x3c, 0x31, 0x34, 0x3d, 0xbe, 0x87, 0xfa, 0x68, 0xbe, 0xd7, 0x8a, 0x42, 0x3e, 0xf5, 0xc0, 0x04, 0x3c, 0x96, 0x7f, 0x92, 0x3d, 0x9d, 0x1c, 0x65, 0xbe, 0x62, 0xcd, 0xb5, 0x3d, 0xda, 0x3f, 0x36, 0x3e, 0x1d, 0xbf, 0xcf, 0x3b, 0x20, 0xf0, 0x70, 0xbd, 0xf7, 0xf7, 0x97, 0xbe, 0x91, 0xc8, 0x02, 0xbd, 0xaf, 0x7a, 0x6c, 0xbe, 0x78, 0x10, 0x2b, 0x3e, 0x68, 0x30, 0x2d, 0x3e, 0xf6, 0x70, 0xf0, 0x3c, 0x1b, 0x08, 0x0e, 0x3e, 0xde, 0xee, 0x96, 0x3d, 0x54, 0xab, 0xab, 0xbd, 0x20, 0xb7, 0x60, 0xbe, 0xcb, 0xfb, 0x08, 0x3e, 0x3c, 0xcd, 0x89, 0xbe, 0x57, 0x2a, 0x98, 0xbe, 0x6d, 0x35, 0x51, 0xbe, 0x4c, 0xf1, 0xb3, 0x3d, 0xee, 0x7e, 0xa8, 0x3d, 0xfb, 0x3b, 0x02, 0xbd, 0x8e, 0xab, 0x31, 0xbe, 0xb5, 0x3d, 0xa2, 0xbd, 0xb4, 0x63, 0x3f, 0x3d, 0xed, 0x7d, 0x56, 0xbd, 0x57, 0x05, 0xe0, 0xbd, 0x47, 0xe6, 0x97, 0xbd, 0x1d, 0x98, 0x7f, 0xbe, 0x29, 0xe6, 0xb6, 0x3d, 0x7d, 0xe4, 0x96, 0x3e, 0x1c, 0x6c, 0x4e, 0xbe, 0xaa, 0xf7, 0x55, 0xbe, 0x22, 0xa0, 0x48, 0xbe, 0xcc, 0x97, 0x1a, 0xbe, 0x2e, 0x9a, 0x72, 0xbe, 0x99, 0xc7, 0xec, 0x3d, 0xea, 0x6c, 0x0a, 0x3e, 0xb2, 0xd8, 0x6b, 0xbe, 0xc4, 0xa7, 0x2e, 0x3e, 0xb1, 0x10, 0x39, 0x3e, 0xae, 0x5a, 0xdc, 0xbd, 0x14, 0x22, 0x43, 0x3e, 0x59, 0x43, 0x72, 0x3d, 0x0c, 0xa3, 0x68, 0xbe, 0xe6, 0x7b, 0x38, 0xbd, 0x5f, 0x6a, 0xb6, 0xbc, 0x8d, 0x58, 0xcf, 0x3d, 0xf0, 0x03, 0x54, 0xbd, 0x92, 0x07, 0x24, 0x3e, 0x4d, 0x21, 0x95, 0x3d, 0x3d, 0x2a, 0x75, 0xbe, 0x62, 0x87, 0x0c, 0x3d, 0x38, 0xd5, 0xa2, 0xbd, 0x74, 0xf0, 0x01, 0x3d, 0x0e, 0x29, 0x8a, 0x3b, 0xad, 0x32, 0x14, 0x3c, 0x65, 0xca, 0xe7, 0x3d, 0x6a, 0x9e, 0x9a, 0x3d, 0x48, 0xae, 0xf7, 0xbb, 0xc1, 0x50, 0x9b, 0x3d, 0xff, 0x89, 0xa1, 0xbd, 0x73, 0xb8, 0x97, 0x3e, 0x43, 0xd1, 0xa4, 0xbd, 0x71, 0xeb, 0x4b, 0x3d, 0x99, 0x93, 0x36, 0xbe, 0x9c, 0x03, 0x8f, 0xbc, 0x28, 0x90, 0xed, 0xbd, 0x2a, 0x95, 0x62, 0x3e, 0xfe, 0xc4, 0x09, 0xbe, 0xe0, 0x58, 0x92, 0xbe, 0x89, 0x76, 0x2c, 0xbd, 0x07, 0x34, 0xbb, 0x3d, 0x7f, 0xc5, 0x15, 0x3e, 0xad, 0xec, 0x4f, 0x3d, 0xc7, 0xdf, 0x94, 0x3e, 0x6d, 0x6a, 0x5f, 0x3e, 0xee, 0xcb, 0xaa, 0x3d, 0xbc, 0xd9, 0x91, 0xbe, 0x06, 0xc9, 0x4e, 0xbe, 0x63, 0x6f, 0x6b, 0xbd, 0x33, 0x6c, 0x63, 0xbe, 0x52, 0x73, 0x17, 0x3e, 0x01, 0xa7, 0x07, 0xbc, 0xf6, 0x1e, 0x57, 0x3e, 0xc1, 0x9e, 0x49, 0x3e, 0x3e, 0xa3, 0x8b, 0x3d, 0x4e, 0x2b, 0x95, 0xbe, 0x31, 0xfd, 0x97, 0xbe, 0x8c, 0xfb, 0xf3, 0x3d, 0x18, 0xa4, 0xce, 0x3d, 0xe1, 0x07, 0x80, 0xbe, 0x97, 0x94, 0x0a, 0xbc, 0xb7, 0xe6, 0xfa, 0xbd, 0xe6, 0xdf, 0x46, 0x3e, 0xf9, 0x97, 0xf5, 0x3d, 0xb9, 0x00, 0x2b, 0x3e, 0x23, 0xc4, 0x8e, 0xbe, 0x5c, 0xfc, 0x21, 0x3e, 0xc6, 0xc0, 0x7c, 0xbd, 0x56, 0x96, 0x94, 0xbd, 0xb3, 0xbc, 0x2f, 0x3e, 0xa7, 0xce, 0x22, 0xbe, 0x78, 0xf5, 0x51, 0xbd, 0x9d, 0x91, 0x4d, 0xbd, 0x54, 0xef, 0x2b, 0xbe, 0x23, 0x23, 0x0f, 0xbe, 0x43, 0x27, 0x08, 0x3e, 0x33, 0xe9, 0xe6, 0x3d, 0xc4, 0xe3, 0x2d, 0x3e, 0x1d, 0x1f, 0xa5, 0xbd, 0x7f, 0x05, 0x47, 0xbe, 0xdb, 0x8e, 0xb9, 0xbd, 0xfa, 0xbd, 0x05, 0xbe, 0x06, 0x58, 0x8d, 0x3d, 0x72, 0x2c, 0x5c, 0x3e, 0x0e, 0x48, 0x72, 0x3e, 0xc5, 0xe1, 0x24, 0xbe, 0xa2, 0x6c, 0x3c, 0x3e, 0x39, 0x85, 0x3b, 0x3d, 0x37, 0x52, 0x8f, 0x3d, 0xac, 0x56, 0x58, 0xbe, 0x0c, 0x6f, 0x9b, 0xbd, 0x3b, 0x42, 0x0a, 0x3d, 0xd1, 0xb4, 0xdf, 0xbd, 0x7d, 0xa3, 0xbd, 0x3d, 0xa3, 0x41, 0x3b, 0x3d, 0x1b, 0xf0, 0x4c, 0x3e, 0x5d, 0x71, 0x41, 0x3e, 0x32, 0xfa, 0xf3, 0xbc, 0x87, 0x91, 0x6f, 0xbe, 0x01, 0x48, 0x61, 0x3e, 0x7f, 0x13, 0x3a, 0x3e, 0x2e, 0xd9, 0xaa, 0x3d, 0x8f, 0x08, 0x74, 0x3e, 0x2d, 0x75, 0xa8, 0x3d, 0xed, 0x8c, 0x9f, 0x3d, 0x4e, 0x74, 0x15, 0xbe, 0x6a, 0xbd, 0x50, 0x3e, 0x8a, 0x3a, 0x85, 0x3d, 0xfb, 0xf0, 0x5f, 0x3d, 0x67, 0x0f, 0x5e, 0xbe, 0x50, 0x07, 0xe4, 0x3d, 0xa5, 0xc5, 0x10, 0xbe, 0x89, 0x57, 0x82, 0x3e, 0x23, 0x0d, 0x7c, 0x3e, 0xfd, 0xd5, 0x42, 0xbd, 0x52, 0xdd, 0xd4, 0x3d, 0xd2, 0x6d, 0x82, 0x3e, 0x5b, 0xd9, 0xbb, 0x3d, 0x22, 0xba, 0xb0, 0x3d, 0xba, 0x28, 0x1b, 0x3d, 0x2c, 0xf2, 0x2e, 0xbe, 0x32, 0x32, 0x19, 0xbd, 0x90, 0xa0, 0x1d, 0xbe, 0x04, 0x7f, 0xc1, 0x3d, 0x21, 0x2e, 0x07, 0x3c, 0x74, 0x1f, 0xc4, 0xbd, 0x20, 0x5b, 0xa3, 0xbd, 0xf4, 0xc1, 0x80, 0xbe, 0x6c, 0x76, 0xa9, 0xbd, 0xcb, 0x67, 0xfd, 0xbd, 0x3b, 0x40, 0x04, 0xbd, 0xa4, 0x0c, 0x79, 0xbd, 0x29, 0x94, 0x99, 0xbd, 0x93, 0x3b, 0x28, 0xbe, 0xf1, 0x4e, 0x5c, 0x3d, 0xb4, 0x55, 0x63, 0xbc, 0x76, 0xbf, 0x13, 0xbe, 0x9d, 0x50, 0x1f, 0x3e, 0xbe, 0xf2, 0xa9, 0x3d, 0xf7, 0x1c, 0xf0, 0x3c, 0x44, 0xcd, 0x2a, 0x3e, 0x33, 0xe1, 0x50, 0xbd, 0xaf, 0x6f, 0x53, 0xbe, 0xc9, 0xc6, 0x2b, 0x3e, 0xba, 0x7b, 0x88, 0x3d, 0xdb, 0xf7, 0x39, 0xbe, 0x6d, 0xc7, 0x57, 0x3e, 0x37, 0xfc, 0xbc, 0xbd, 0xf2, 0x77, 0xb5, 0x3c, 0x22, 0xc3, 0x32, 0xbd, 0x02, 0x01, 0x0d, 0xbe, 0x39, 0xb4, 0x7e, 0xbd, 0x0d, 0x74, 0x53, 0x3e, 0x8d, 0x84, 0x80, 0x3e, 0x61, 0x66, 0x7f, 0xbd, 0x89, 0xc3, 0x83, 0x3d, 0x9d, 0x7e, 0x58, 0x3e, 0x7a, 0x70, 0x03, 0xbe, 0xee, 0xff, 0xff, 0xff, 0x04, 0x00, 0x00, 0x00, 0x04, 0x00, 0x00, 0x00, 0x88, 0x29, 0xa5, 0x3c, 0x00, 0x00, 0x06, 0x00, 0x08, 0x00, 0x04, 0x00, 0x06, 0x00, 0x00, 0x00, 0x04, 0x00, 0x00, 0x00, 0x14, 0x00, 0x00, 0x00, 0xf7, 0x3b, 0xcd, 0x3d, 0xb0, 0xd7, 0xe0, 0x3d, 0x55, 0xe7, 0x57, 0xbc, 0x28, 0x9c, 0x00, 0x3e, 0x28, 0xee, 0x89, 0x3c, 0xa0, 0xfc, 0xff, 0xff, 0xa4, 0xfc, 0xff, 0xff, 0x0f, 0x00, 0x00, 0x00, 0x4d, 0x4c, 0x49, 0x52, 0x20, 0x43, 0x6f, 0x6e, 0x76, 0x65, 0x72, 0x74, 0x65, 0x64, 0x2e, 0x00, 0x01, 0x00, 0x00, 0x00, 0x14, 0x00, 0x00, 0x00, 0x00, 0x00, 0x0e, 0x00, 0x18, 0x00, 0x04, 0x00, 0x08, 0x00, 0x0c, 0x00, 0x10, 0x00, 0x14, 0x00, 0x0e, 0x00, 0x00, 0x00, 0xf8, 0x00, 0x00, 0x00, 0xec, 0x00, 0x00, 0x00, 0xe0, 0x00, 0x00, 0x00, 0x14, 0x00, 0x00, 0x00, 0x04, 0x00, 0x00, 0x00, 0x04, 0x00, 0x00, 0x00, 0x6d, 0x61, 0x69, 0x6e, 0x00, 0x00, 0x00, 0x00, 0x03, 0x00, 0x00, 0x00, 0x88, 0x00, 0x00, 0x00, 0x44, 0x00, 0x00, 0x00, 0x10, 0x00, 0x00, 0x00, 0x00, 0x00, 0x0a, 0x00, 0x10, 0x00, 0x04, 0x00, 0x08, 0x00, 0x0c, 0x00, 0x0a, 0x00, 0x00, 0x00, 0x01, 0x00, 0x00, 0x00, 0x10, 0x00, 0x00, 0x00, 0x04, 0x00, 0x00, 0x00, 0x01, 0x00, 0x00, 0x00, 0x07, 0x00, 0x00, 0x00, 0x01, 0x00, 0x00, 0x00, 0x06, 0x00, 0x00, 0x00, 0x00, 0x00, 0x0e, 0x00, 0x14, 0x00, 0x00, 0x00, 0x08, 0x00, 0x0c, 0x00, 0x07, 0x00, 0x10, 0x00, 0x0e, 0x00, 0x00, 0x00, 0x00, 0x00, 0x00, 0x08, 0x18, 0x00, 0x00, 0x00, 0x0c, 0x00, 0x00, 0x00, 0x04, 0x00, 0x00, 0x00, 0x58, 0xfd, 0xff, 0xff, 0x01, 0x00, 0x00, 0x00, 0x06, 0x00, 0x00, 0x00, 0x03, 0x00, 0x00, 0x00, 0x05, 0x00, 0x00, 0x00, 0x04, 0x00, 0x00, 0x00, 0x02, 0x00, 0x00, 0x00, 0x00, 0x00, 0x0e, 0x00, 0x16, 0x00, 0x00, 0x00, 0x08, 0x00, 0x0c, 0x00, 0x07, 0x00, 0x10, 0x00, 0x0e, 0x00, 0x00, 0x00, 0x00, 0x00, 0x00, 0x08, 0x24, 0x00, 0x00, 0x00, 0x18, 0x00, 0x00, 0x00, 0x0c, 0x00, 0x00, 0x00, 0x00, 0x00, 0x06, 0x00, 0x08, 0x00, 0x07, 0x00, 0x06, 0x00, 0x00, 0x00, 0x00, 0x00, 0x00, 0x01, 0x01, 0x00, 0x00, 0x00, 0x05, 0x00, 0x00, 0x00, 0x03, 0x00, 0x00, 0x00, 0x00, 0x00, 0x00, 0x00, 0x03, 0x00, 0x00, 0x00, 0x01, 0x00, 0x00, 0x00, 0x01, 0x00, 0x00, 0x00, 0x07, 0x00, 0x00, 0x00, 0x01, 0x00, 0x00, 0x00, 0x00, 0x00, 0x00, 0x00, 0x08, 0x00, 0x00, 0x00, 0x18, 0x02, 0x00, 0x00, 0xb4, 0x01, 0x00, 0x00, 0x60, 0x01, 0x00, 0x00, 0x18, 0x01, 0x00, 0x00, 0xd0, 0x00, 0x00, 0x00, 0x88, 0x00, 0x00, 0x00, 0x3c, 0x00, 0x00, 0x00, 0x04, 0x00, 0x00, 0x00, 0x16, 0xfe, 0xff, 0xff, 0x24, 0x00, 0x00, 0x00, 0x08, 0x00, 0x00, 0x00, 0x0c, 0x00, 0x00, 0x00, 0x04, 0x00, 0x00, 0x00, 0x08, 0xfe, 0xff, 0xff, 0x08, 0x00, 0x00, 0x00, 0x49, 0x64, 0x65, 0x6e, 0x74, 0x69, 0x74, 0x79, 0x00, 0x00, 0x00, 0x00, 0x02, 0x00, 0x00, 0x00, 0x01, 0x00, 0x00, 0x00, 0x01, 0x00, 0x00, 0x00, 0x4a, 0xfe, 0xff, 0xff, 0x38, 0x00, 0x00, 0x00, 0x07, 0x00, 0x00, 0x00, 0x0c, 0x00, 0x00, 0x00, 0x04, 0x00, 0x00, 0x00, 0x3c, 0xfe, 0xff, 0xff, 0x1c, 0x00, 0x00, 0x00, 0x73, 0x65, 0x71, 0x75, 0x65, 0x6e, 0x74, 0x69, 0x61, 0x6c, 0x5f, 0x34, 0x2f, 0x64, 0x65, 0x6e, 0x73, 0x65, 0x5f, 0x39, 0x2f, 0x42, 0x69, 0x61, 0x73, 0x41, 0x64, 0x64, 0x00, 0x00, 0x00, 0x00, 0x02, 0x00, 0x00, 0x00, 0x01, 0x00, 0x00, 0x00, 0x01, 0x00, 0x00, 0x00, 0x92, 0xfe, 0xff, 0xff, 0x34, 0x00, 0x00, 0x00, 0x06, 0x00, 0x00, 0x00, 0x0c, 0x00, 0x00, 0x00, 0x04, 0x00, 0x00, 0x00, 0x84, 0xfe, 0xff, 0xff, 0x19, 0x00, 0x00, 0x00, 0x73, 0x65, 0x71, 0x75, 0x65, 0x6e, 0x74, 0x69, 0x61, 0x6c, 0x5f, 0x34, 0x2f, 0x64, 0x65, 0x6e, 0x73, 0x65, 0x5f, 0x38, 0x2f, 0x52, 0x65, 0x6c, 0x75, 0x00, 0x00, 0x00, 0x02, 0x00, 0x00, 0x00, 0x01, 0x00, 0x00, 0x00, 0x05, 0x00, 0x00, 0x00, 0xd6, 0xfe, 0xff, 0xff, 0x34, 0x00, 0x00, 0x00, 0x05, 0x00, 0x00, 0x00, 0x0c, 0x00, 0x00, 0x00, 0x04, 0x00, 0x00, 0x00, 0xc8, 0xfe, 0xff, 0xff, 0x1b, 0x00, 0x00, 0x00, 0x73, 0x65, 0x71, 0x75, 0x65, 0x6e, 0x74, 0x69, 0x61, 0x6c, 0x5f, 0x34, 0x2f, 0x64, 0x65, 0x6e, 0x73, 0x65, 0x5f, 0x39, 0x2f, 0x4d, 0x61, 0x74, 0x4d, 0x75, 0x6c, 0x00, 0x02, 0x00, 0x00, 0x00, 0x01, 0x00, 0x00, 0x00, 0x05, 0x00, 0x00, 0x00, 0x1a, 0xff, 0xff, 0xff, 0x34, 0x00, 0x00, 0x00, 0x04, 0x00, 0x00, 0x00, 0x0c, 0x00, 0x00, 0x00, 0x04, 0x00, 0x00, 0x00, 0x0c, 0xff, 0xff, 0xff, 0x1b, 0x00, 0x00, 0x00, 0x73, 0x65, 0x71, 0x75, 0x65, 0x6e, 0x74, 0x69, 0x61, 0x6c, 0x5f, 0x34, 0x2f, 0x64, 0x65, 0x6e, 0x73, 0x65, 0x5f, 0x38, 0x2f, 0x4d, 0x61, 0x74, 0x4d, 0x75, 0x6c, 0x00, 0x02, 0x00, 0x00, 0x00, 0x05, 0x00, 0x00, 0x00, 0x64, 0x00, 0x00, 0x00, 0x5e, 0xff, 0xff, 0xff, 0x44, 0x00, 0x00, 0x00, 0x03, 0x00, 0x00, 0x00, 0x0c, 0x00, 0x00, 0x00, 0x04, 0x00, 0x00, 0x00, 0x50, 0xff, 0xff, 0xff, 0x2b, 0x00, 0x00, 0x00, 0x73, 0x65, 0x71, 0x75, 0x65, 0x6e, 0x74, 0x69, 0x61, 0x6c, 0x5f, 0x34, 0x2f, 0x64, 0x65, 0x6e, 0x73, 0x65, 0x5f, 0x39, 0x2f, 0x42, 0x69, 0x61, 0x73, 0x41, 0x64, 0x64, 0x2f, 0x52, 0x65, 0x61, 0x64, 0x56, 0x61, 0x72, 0x69, 0x61, 0x62, 0x6c, 0x65, 0x4f, 0x70, 0x00, 0x01, 0x00, 0x00, 0x00, 0x01, 0x00, 0x00, 0x00, 0xae, 0xff, 0xff, 0xff, 0x44, 0x00, 0x00, 0x00, 0x02, 0x00, 0x00, 0x00, 0x0c, 0x00, 0x00, 0x00, 0x04, 0x00, 0x00, 0x00, 0xa0, 0xff, 0xff, 0xff, 0x2b, 0x00, 0x00, 0x00, 0x73, 0x65, 0x71, 0x75, 0x65, 0x6e, 0x74, 0x69, 0x61, 0x6c, 0x5f, 0x34, 0x2f, 0x64, 0x65, 0x6e, 0x73, 0x65, 0x5f, 0x38, 0x2f, 0x42, 0x69, 0x61, 0x73, 0x41, 0x64, 0x64, 0x2f, 0x52, 0x65, 0x61, 0x64, 0x56, 0x61, 0x72, 0x69, 0x61, 0x62, 0x6c, 0x65, 0x4f, 0x70, 0x00, 0x01, 0x00, 0x00, 0x00, 0x05, 0x00, 0x00, 0x00, 0x00, 0x00, 0x0e, 0x00, 0x14, 0x00, 0x04, 0x00, 0x00, 0x00, 0x08, 0x00, 0x0c, 0x00, 0x10, 0x00, 0x0e, 0x00, 0x00, 0x00, 0x2c, 0x00, 0x00, 0x00, 0x01, 0x00, 0x00, 0x00, 0x10, 0x00, 0x00, 0x00, 0x08, 0x00, 0x00, 0x00, 0x04, 0x00, 0x04, 0x00, 0x04, 0x00, 0x00, 0x00, 0x0d, 0x00, 0x00, 0x00, 0x64, 0x65, 0x6e, 0x73, 0x65, 0x5f, 0x38, 0x5f, 0x69, 0x6e, 0x70, 0x75, 0x74, 0x00, 0x00, 0x00, 0x02, 0x00, 0x00, 0x00, 0x01, 0x00, 0x00, 0x00, 0x64, 0x00, 0x00, 0x00, 0x02, 0x00, 0x00, 0x00, 0x20, 0x00, 0x00, 0x00, 0x0c, 0x00, 0x00, 0x00, 0x00, 0x00, 0x06, 0x00, 0x06, 0x00, 0x05, 0x00, 0x06, 0x00, 0x00, 0x00, 0x00, 0x0e, 0x0a, 0x00, 0x0c, 0x00, 0x07, 0x00, 0x00, 0x00, 0x08, 0x00, 0x0a, 0x00, 0x00, 0x00, 0x00, 0x00, 0x00, 0x09, 0x03, 0x00, 0x00, 0x00};
const int model_data_len = 3136;