
#ifdef __has_attribute
#define HAVE_ATTRIBUTE(x) __has_attribute(x)
#else
#define HAVE_ATTRIBUTE(x) 0
#endif
#if HAVE_ATTRIBUTE(aligned) || (defined(__GNUC__) && !defined(__clang__))
#define DATA_ALIGN_ATTRIBUTE __attribute__((aligned(4)))
#else
#define DATA_ALIGN_ATTRIBUTE
#endif

const unsigned char model_data[] DATA_ALIGN_ATTRIBUTE = {0x1c, 0x00, 0x00, 0x00, 0x54, 0x46, 0x4c, 0x33, 0x00, 0x00, 0x12, 0x00, 0x1c, 0x00, 0x04, 0x00, 0x08, 0x00, 0x0c, 0x00, 0x10, 0x00, 0x14, 0x00, 0x00, 0x00, 0x18, 0x00, 0x12, 0x00, 0x00, 0x00, 0x03, 0x00, 0x00, 0x00, 0x9c, 0x18, 0x00, 0x00, 0x9c, 0x13, 0x00, 0x00, 0x84, 0x13, 0x00, 0x00, 0x3c, 0x00, 0x00, 0x00, 0x04, 0x00, 0x00, 0x00, 0x01, 0x00, 0x00, 0x00, 0x0c, 0x00, 0x00, 0x00, 0x08, 0x00, 0x0c, 0x00, 0x04, 0x00, 0x08, 0x00, 0x08, 0x00, 0x00, 0x00, 0x08, 0x00, 0x00, 0x00, 0x0c, 0x00, 0x00, 0x00, 0x13, 0x00, 0x00, 0x00, 0x6d, 0x69, 0x6e, 0x5f, 0x72, 0x75, 0x6e, 0x74, 0x69, 0x6d, 0x65, 0x5f, 0x76, 0x65, 0x72, 0x73, 0x69, 0x6f, 0x6e, 0x00, 0x0d, 0x00, 0x00, 0x00, 0x3c, 0x13, 0x00, 0x00, 0x28, 0x13, 0x00, 0x00, 0xfc, 0x12, 0x00, 0x00, 0xc8, 0x12, 0x00, 0x00, 0xb4, 0x12, 0x00, 0x00, 0x10, 0x01, 0x00, 0x00, 0x9c, 0x00, 0x00, 0x00, 0x78, 0x00, 0x00, 0x00, 0x6c, 0x00, 0x00, 0x00, 0x58, 0x00, 0x00, 0x00, 0x44, 0x00, 0x00, 0x00, 0x30, 0x00, 0x00, 0x00, 0x04, 0x00, 0x00, 0x00, 0x36, 0xed, 0xff, 0xff, 0x04, 0x00, 0x00, 0x00, 0x10, 0x00, 0x00, 0x00, 0x31, 0x2e, 0x31, 0x34, 0x2e, 0x30, 0x00, 0x00, 0x00, 0x00, 0x00, 0x00, 0x00, 0x00, 0x00, 0x00, 0x00, 0x00, 0x00, 0x00, 0x00, 0x00, 0x00, 0x00, 0x00, 0x00, 0x00, 0x00, 0x34, 0xe8, 0xff, 0xff, 0x00, 0x00, 0x00, 0x00, 0x00, 0x00, 0x00, 0x00, 0x00, 0x00, 0x00, 0x00, 0x44, 0xe8, 0xff, 0xff, 0x00, 0x00, 0x00, 0x00, 0x00, 0x00, 0x00, 0x00, 0x00, 0x00, 0x00, 0x00, 0x54, 0xe8, 0xff, 0xff, 0x00, 0x00, 0x00, 0x00, 0x00, 0x00, 0x00, 0x00, 0x00, 0x00, 0x00, 0x00, 0x64, 0xe8, 0xff, 0xff, 0x00, 0x00, 0x00, 0x00, 0x96, 0xed, 0xff, 0xff, 0x04, 0x00, 0x00, 0x00, 0x14, 0x00, 0x00, 0x00, 0x00, 0x36, 0xf0, 0x3e, 0x60, 0xe9, 0x3c, 0xbf, 0x63, 0x23, 0x50, 0xbe, 0x54, 0xc5, 0x87, 0xbe, 0xfb, 0xbc, 0xe2, 0xbd, 0xb6, 0xed, 0xff, 0xff, 0x04, 0x00, 0x00, 0x00, 0x64, 0x00, 0x00, 0x00, 0xd6, 0x1a, 0x72, 0xbe, 0x58, 0x56, 0xf5, 0xbe, 0xf7, 0xef, 0x1e, 0xbf, 0xa9, 0x82, 0xf5, 0xbe, 0xce, 0x9b, 0x35, 0x3f, 0x18, 0x88, 0x2e, 0x3f, 0x6e, 0x5c, 0xf1, 0x3e, 0x7f, 0xc9, 0x2b, 0xbf, 0x08, 0x81, 0xcb, 0x3e, 0xe9, 0x3f, 0xcc, 0xbe, 0x6b, 0xb3, 0xa6, 0x3d, 0xe6, 0xe2, 0xb0, 0xbc, 0xdb, 0x43, 0x9e, 0x3e, 0x1e, 0x6c, 0x44, 0x3f, 0xa8, 0x21, 0xdc, 0xbe, 0x19, 0x40, 0x95, 0xbe, 0x07, 0x3c, 0x1a, 0x3f, 0x8b, 0x22, 0xbc, 0x3e, 0x02, 0xe7, 0x3a, 0xbf, 0xc6, 0x70, 0x19, 0xbf, 0xdb, 0x4f, 0x2c, 0xbd, 0x45, 0x7b, 0xe0, 0x3e, 0xf2, 0xe2, 0x9b, 0xbe, 0xbd, 0xa9, 0x15, 0xbf, 0x36, 0x45, 0xc4, 0x3d, 0x26, 0xee, 0xff, 0xff, 0x04, 0x00, 0x00, 0x00, 0x94, 0x11, 0x00, 0x00, 0x18, 0x10, 0x00, 0xfa, 0x16, 0x31, 0x15, 0x08, 0xfe, 0xec, 0x10, 0xb8, 0xd5, 0xb8, 0xdd, 0xbe, 0xe9, 0x09, 0x00, 0xb8, 0xdd, 0x13, 0xcc, 0x1d, 0xbe, 0x0f, 0x31, 0x0e, 0x0b, 0xe5, 0x30, 0xf7, 0xc0, 0xd2, 0xce, 0x3a, 0xea, 0x10, 0x13, 0x0d, 0x22, 0xc4, 0xae, 0x0e, 0xbe, 0xf3, 0xd3, 0xe2, 0x1f, 0xf0, 0xd2, 0x35, 0x03, 0x37, 0xe0, 0xcb, 0x45, 0x40, 0x19, 0xcb, 0xc9, 0xba, 0x19, 0x44, 0x22, 0x27, 0xf0, 0xf7, 0xf5, 0xe9, 0x22, 0xde, 0x35, 0xf5, 0x32, 0x17, 0x2f, 0xb6, 0xdf, 0x08, 0xca, 0xbc, 0x30, 0x20, 0xdb, 0xe4, 0x17, 0x09, 0x08, 0xca, 0x3b, 0x04, 0x03, 0x38, 0x18, 0x24, 0xfc, 0x21, 0x2f, 0x09, 0xdd, 0xfb, 0x30, 0x25, 0xd1, 0xf6, 0x27, 0xd0, 0x16, 0x34, 0x31, 0xed, 0x35, 0xf1, 0x34, 0x32, 0xe7, 0x02, 0xd4, 0x32, 0x0f, 0x39, 0xff, 0x1e, 0xeb, 0x1e, 0x09, 0xd2, 0xe1, 0xb2, 0xe4, 0x0e, 0x23, 0xd6, 0xe5, 0xae, 0xf9, 0xc1, 0x1a, 0xf1, 0xd5, 0xd7, 0xe1, 0x28, 0x32, 0xb7, 0x10, 0xdc, 0xfc, 0x32, 0x22, 0x1d, 0x34, 0x27, 0xe6, 0x02, 0xf3, 0x31, 0xe9, 0x00, 0x13, 0xce, 0x06, 0xe0, 0x2a, 0xb5, 0x0e, 0xba, 0xab, 0x23, 0xef, 0x24, 0xb8, 0xdd, 0x19, 0x2f, 0x15, 0xe3, 0xd4, 0xd8, 0xe0, 0xc7, 0xe6, 0xe3, 0x32, 0xc9, 0x3c, 0xcc, 0x34, 0xd1, 0x18, 0xb9, 0xff, 0xf1, 0x18, 0xf2, 0x2b, 0xb0, 0xb4, 0x2d, 0xd2, 0x1c, 0xbc, 0xc5, 0x2f, 0xe2, 0x33, 0xfc, 0x41, 0x4a, 0xf2, 0x11, 0xbc, 0xe5, 0xf0, 0x12, 0xe2, 0xe4, 0xda, 0xcd, 0x31, 0xf3, 0xd3, 0x15, 0xbe, 0xf5, 0xef, 0xd4, 0xe4, 0x17, 0xb1, 0x2e, 0xf0, 0xff, 0xd2, 0xbe, 0x37, 0xc2, 0xdb, 0x39, 0xe7, 0x27, 0x0b, 0x00, 0xe3, 0xfe, 0x17, 0xdc, 0xc0, 0xb7, 0x32, 0x0d, 0xfb, 0x0a, 0x20, 0x22, 0xf6, 0x32, 0x20, 0xdf, 0x02, 0xec, 0xf6, 0x0c, 0x33, 0x35, 0x22, 0xf2, 0x1f, 0x3a, 0xff, 0x0a, 0xd0, 0x02, 0xfb, 0x00, 0xb9, 0xfd, 0x36, 0x38, 0xe8, 0x36, 0x1b, 0xb7, 0xfb, 0x0d, 0xbc, 0xe3, 0xd0, 0x14, 0x26, 0xf2, 0x31, 0x32, 0xc3, 0xdb, 0xf6, 0x38, 0x48, 0x22, 0x24, 0xe4, 0x3d, 0xd8, 0xf6, 0x28, 0xe1, 0x04, 0x1d, 0x1a, 0xe1, 0x46, 0xef, 0xb8, 0x0c, 0xfe, 0xc4, 0x4b, 0x32, 0xfb, 0x3b, 0x2f, 0xd3, 0xfa, 0xc0, 0x17, 0x2a, 0x06, 0x09, 0x39, 0x2c, 0xe8, 0xd1, 0x16, 0x0b, 0x19, 0xbf, 0x27, 0x29, 0x4a, 0x14, 0x3d, 0x38, 0x05, 0x27, 0xbf, 0x09, 0xee, 0xd2, 0xed, 0x13, 0xd4, 0x1f, 0xcb, 0x1d, 0xea, 0x3a, 0xee, 0xe1, 0x05, 0x26, 0x10, 0xe4, 0xeb, 0x1d, 0x23, 0xf3, 0xc4, 0x44, 0xfd, 0xd8, 0xbe, 0x1f, 0x03, 0x13, 0xbc, 0xdc, 0x48, 0xda, 0x21, 0xcf, 0x1d, 0xf3, 0xd8, 0x20, 0x1d, 0xf9, 0xfe, 0xb9, 0xf5, 0xec, 0x39, 0x41, 0x2c, 0xbb, 0x27, 0x0c, 0xe2, 0xe4, 0x1e, 0x40, 0xc0, 0x23, 0xfa, 0xb7, 0xab, 0x11, 0xd8, 0xb0, 0xdc, 0x1a, 0xf4, 0xd4, 0xfc, 0xbc, 0xb9, 0xf2, 0xd2, 0x3b, 0xc3, 0x0c, 0xde, 0x3a, 0x3b, 0x12, 0xc0, 0x02, 0x14, 0x2e, 0xe7, 0x0b, 0x19, 0xce, 0x01, 0xfe, 0x16, 0x01, 0xda, 0x0c, 0xfc, 0xd5, 0xaf, 0x17, 0x0d, 0x14, 0xd9, 0x18, 0xdc, 0xef, 0xd0, 0x2d, 0xf2, 0xdf, 0xc1, 0x1f, 0xd8, 0xec, 0xe4, 0x07, 0xc1, 0xd3, 0x14, 0x3e, 0xc6, 0xd5, 0xf0, 0x41, 0x09, 0x3a, 0x3f, 0xe3, 0xd2, 0xdf, 0xed, 0x20, 0xf8, 0x12, 0xd6, 0xe0, 0xc4, 0x08, 0x2e, 0xd4, 0x31, 0x31, 0x14, 0xd0, 0x13, 0x24, 0xfa, 0xe9, 0x30, 0x19, 0xc6, 0xbd, 0x08, 0x21, 0x44, 0x04, 0x3f, 0x24, 0xe3, 0x1e, 0x4c, 0xde, 0x06, 0xfb, 0x06, 0x10, 0xff, 0xc5, 0x05, 0x26, 0x0e, 0xb6, 0xf4, 0xe2, 0xca, 0x28, 0xc0, 0x26, 0x09, 0xc8, 0xe6, 0x4b, 0xd0, 0x3a, 0x3a, 0xd0, 0x0b, 0xeb, 0xc2, 0x30, 0x0a, 0xfd, 0x4d, 0x15, 0xbc, 0xfc, 0xc1, 0x07, 0x27, 0xb6, 0xc2, 0xb5, 0x23, 0xdb, 0x21, 0xd0, 0xfb, 0xed, 0x08, 0x1e, 0x47, 0xc0, 0xe3, 0xfe, 0x4e, 0x3d, 0x08, 0x40, 0xc9, 0x1b, 0xfc, 0x2b, 0xd3, 0x03, 0x13, 0xfe, 0x38, 0xb4, 0x01, 0xb4, 0xd3, 0xbf, 0x13, 0x12, 0x0c, 0x3f, 0x2b, 0xe7, 0x1d, 0x11, 0x43, 0x35, 0x29, 0xec, 0x25, 0x0f, 0x11, 0xfc, 0x10, 0x29, 0xd1, 0x07, 0x3c, 0x46, 0x1b, 0xe2, 0x11, 0xfe, 0x08, 0xb0, 0xc5, 0x2c, 0xe9, 0x13, 0x43, 0xe8, 0x1c, 0xf4, 0xe4, 0xee, 0xde, 0xcc, 0xe5, 0x24, 0xeb, 0x05, 0x38, 0x47, 0xca, 0x44, 0x0a, 0x01, 0xcc, 0xc2, 0xdb, 0xb7, 0xfd, 0x30, 0xb0, 0x1a, 0xf8, 0xf5, 0xfb, 0xf7, 0x2e, 0x2d, 0x0b, 0xd5, 0xfb, 0xc7, 0xc2, 0xd4, 0x2b, 0xf0, 0xd5, 0x42, 0x27, 0xd9, 0xed, 0xeb, 0x0d, 0xe5, 0x4d, 0xf4, 0x2b, 0xf7, 0x16, 0x14, 0xdb, 0xbe, 0x03, 0xe0, 0x08, 0x3b, 0xdd, 0x2c, 0xfb, 0x16, 0xc1, 0xe7, 0xe8, 0xfa, 0xc6, 0xdc, 0xcd, 0xc8, 0xe6, 0xbf, 0x0c, 0x36, 0x09, 0xeb, 0xe0, 0xd8, 0x16, 0x1f, 0x02, 0xe2, 0xe7, 0xb4, 0xd6, 0xbc, 0x26, 0x2b, 0xe3, 0x29, 0xde, 0xff, 0xe3, 0xfb, 0xfe, 0x47, 0x1b, 0x16, 0xcb, 0x2e, 0xf5, 0x37, 0xe7, 0x3b, 0xd4, 0xf6, 0x2f, 0x3c, 0x2a, 0x0e, 0x08, 0x2f, 0xfa, 0xbc, 0xe7, 0x30, 0x13, 0xcb, 0x12, 0xfe, 0xea, 0x36, 0x20, 0x49, 0x0c, 0x20, 0xf5, 0x4f, 0x32, 0x11, 0xf9, 0x50, 0xd4, 0x12, 0xd8, 0xd3, 0xdb, 0x21, 0xcf, 0x34, 0x2f, 0xb6, 0xb3, 0x08, 0x09, 0xc2, 0xda, 0x0e, 0xce, 0x2a, 0x10, 0xdd, 0xd3, 0xfe, 0xfe, 0x41, 0x02, 0xe5, 0x34, 0xd5, 0x48, 0xef, 0x14, 0x17, 0x1d, 0xf1, 0xeb, 0x07, 0x21, 0x2d, 0x1d, 0xd3, 0xbf, 0x18, 0x20, 0xf0, 0xff, 0x42, 0xe6, 0x12, 0xfd, 0x2e, 0x1f, 0x03, 0x2f, 0x32, 0xd8, 0x50, 0xfb, 0xed, 0x02, 0xf2, 0xf2, 0xc8, 0x04, 0xd4, 0x31, 0xce, 0x14, 0x03, 0xd8, 0x16, 0x06, 0x0d, 0x35, 0x1d, 0x1e, 0x1b, 0xf8, 0xf6, 0xdb, 0xcb, 0x02, 0xf2, 0x21, 0x22, 0xd7, 0x54, 0xf0, 0xf2, 0xf6, 0xd1, 0xe5, 0xcd, 0x25, 0x0c, 0x1c, 0xf0, 0x26, 0x00, 0x2e, 0xad, 0xbb, 0x10, 0x1a, 0xf5, 0x26, 0x32, 0xff, 0xcd, 0xd3, 0x19, 0x18, 0x03, 0x13, 0x06, 0x44, 0x2e, 0x29, 0x42, 0x21, 0x2f, 0xcd, 0x01, 0x03, 0xef, 0x23, 0xd7, 0x0a, 0xde, 0xf8, 0xf0, 0x26, 0xd8, 0xfe, 0xec, 0x0a, 0xf4, 0x35, 0x13, 0x15, 0xf8, 0xf8, 0x03, 0xd0, 0x25, 0x07, 0x39, 0xf8, 0xd7, 0x1b, 0x1a, 0xbf, 0x27, 0xb9, 0xdf, 0x28, 0x2f, 0x18, 0xb5, 0xfe, 0xe9, 0x06, 0xe8, 0xdd, 0xc3, 0xd0, 0x09, 0x2a, 0x21, 0x02, 0xd5, 0x32, 0x16, 0xcf, 0x36, 0x10, 0x30, 0x33, 0x07, 0x42, 0xfa, 0xf2, 0xdd, 0xd8, 0xf2, 0x0d, 0x3a, 0x11, 0xc7, 0xe2, 0x36, 0xd0, 0xfb, 0x0b, 0x17, 0xd7, 0xb8, 0x15, 0x0e, 0xc2, 0xbf, 0xf8, 0x0f, 0x21, 0x10, 0x19, 0xc4, 0x2d, 0xf9, 0xd2, 0x05, 0x00, 0x02, 0x0b, 0xf0, 0x3e, 0x06, 0x22, 0x31, 0x35, 0x49, 0x08, 0x05, 0xc3, 0x46, 0x06, 0xf8, 0x14, 0x1e, 0xf9, 0x21, 0xd3, 0xc2, 0xc6, 0x00, 0x0e, 0xc9, 0xb0, 0xca, 0x30, 0xd7, 0xcd, 0xc9, 0x2a, 0xcc, 0x43, 0x0c, 0xe9, 0x32, 0xc3, 0xe6, 0xf3, 0x3c, 0xd0, 0xeb, 0xc7, 0x38, 0x14, 0xc8, 0xdb, 0xc9, 0x20, 0xc5, 0x30, 0xf5, 0xdd, 0x04, 0xad, 0xc2, 0xe7, 0xe1, 0xbd, 0xca, 0x2d, 0xec, 0xea, 0x1e, 0xcc, 0x13, 0x0a, 0x4b, 0xd0, 0x0e, 0xd1, 0x13, 0xe7, 0xbf, 0x2e, 0x1c, 0xc1, 0xe1, 0xf3, 0x19, 0xbb, 0xd3, 0xd8, 0x14, 0x30, 0xd3, 0xbf, 0xae, 0xef, 0xdd, 0x45, 0x0d, 0xdb, 0x27, 0x13, 0xe1, 0x14, 0x37, 0xf6, 0x31, 0x36, 0xf7, 0xfa, 0x14, 0xab, 0xce, 0xe4, 0xf1, 0x33, 0x31, 0xdf, 0xe7, 0xd8, 0x20, 0x0e, 0x14, 0x1d, 0x17, 0x15, 0xf5, 0x34, 0xe5, 0x39, 0x1d, 0xcf, 0x16, 0xe4, 0xe4, 0xc8, 0x08, 0x16, 0xf6, 0xd3, 0xd1, 0xea, 0x1b, 0x2e, 0x0c, 0xc9, 0x12, 0xb9, 0x1e, 0xc7, 0xf9, 0xc6, 0x1b, 0xc9, 0xbc, 0xf1, 0x27, 0xf6, 0xf7, 0x0e, 0xdf, 0xc7, 0xe0, 0x0d, 0x07, 0xdd, 0xfc, 0xfa, 0x36, 0x3c, 0xe1, 0x2f, 0xab, 0xa8, 0xe7, 0x09, 0xc2, 0x13, 0xec, 0xbf, 0xf8, 0xff, 0xc6, 0xdd, 0xe4, 0xb3, 0xf3, 0x0b, 0x47, 0xec, 0xc8, 0xef, 0x1a, 0xda, 0xe5, 0xff, 0xf7, 0xd6, 0x28, 0x13, 0xef, 0x0d, 0xbe, 0x20, 0xd9, 0x24, 0x13, 0xde, 0xc2, 0xbb, 0x24, 0xc9, 0xbe, 0x06, 0xd3, 0xe6, 0x12, 0xd8, 0xc8, 0xde, 0x01, 0x48, 0xd7, 0x3d, 0x2d, 0x08, 0xca, 0x4c, 0x40, 0x21, 0x2c, 0x21, 0xe8, 0x22, 0xdd, 0xea, 0x14, 0xf5, 0x02, 0xbd, 0x18, 0xde, 0x26, 0xda, 0x28, 0x24, 0x31, 0x28, 0x30, 0x21, 0x10, 0xe9, 0x0f, 0x47, 0x04, 0xc7, 0x16, 0xd3, 0x3d, 0xf9, 0xbc, 0xcf, 0xf9, 0x31, 0x2a, 0xe7, 0xbe, 0x25, 0x34, 0x1d, 0xb3, 0xc4, 0x26, 0xf2, 0x06, 0xd3, 0x41, 0xdc, 0xd6, 0xe4, 0x34, 0x36, 0xe2, 0x02, 0xd4, 0xca, 0xd1, 0x3d, 0xd9, 0x18, 0xe2, 0xd9, 0xe7, 0xf5, 0x00, 0xc4, 0x2c, 0xe9, 0x15, 0xb6, 0xc0, 0xbd, 0xd0, 0xd4, 0xb4, 0x1e, 0x06, 0xd8, 0x15, 0x00, 0xc1, 0xe1, 0x35, 0x2c, 0xdb, 0x09, 0xd7, 0x4d, 0xc9, 0xd4, 0x03, 0x22, 0x07, 0xe8, 0x1b, 0xc7, 0xe8, 0x11, 0x0b, 0xcb, 0x1f, 0xd7, 0x03, 0x13, 0xec, 0x13, 0x00, 0xc3, 0x29, 0xbe, 0x08, 0x04, 0x31, 0x0e, 0xca, 0xef, 0xf5, 0xeb, 0xd8, 0x38, 0x29, 0xef, 0x28, 0x31, 0x2d, 0x05, 0xdb, 0xf3, 0xdc, 0x28, 0xc8, 0xc4, 0xf2, 0xb1, 0xf9, 0xe4, 0xe0, 0xbd, 0xdd, 0xbf, 0x02, 0x15, 0xee, 0x3c, 0xed, 0xec, 0x34, 0x33, 0xea, 0xc9, 0xc7, 0x44, 0x33, 0x24, 0x34, 0x07, 0x29, 0xbf, 0xc3, 0x15, 0xd7, 0xbc, 0xc4, 0xff, 0xc2, 0x1e, 0x04, 0x1c, 0x08, 0x36, 0xbc, 0xb9, 0x1b, 0xeb, 0xff, 0x04, 0xf4, 0xdb, 0x4b, 0xcb, 0xfb, 0xe0, 0xc6, 0x06, 0x2d, 0xc5, 0xcc, 0x36, 0xe0, 0xfb, 0xe7, 0xc7, 0x02, 0xd4, 0xf3, 0xf7, 0xc8, 0x0e, 0xe1, 0xf2, 0x01, 0xc9, 0x2b, 0xf8, 0xe0, 0x30, 0x49, 0x06, 0xe7, 0x32, 0x40, 0x42, 0x3f, 0xb8, 0x1f, 0xe1, 0xcb, 0xf3, 0xdf, 0x09, 0xc3, 0x28, 0xda, 0xde, 0xd2, 0xf2, 0xda, 0x3a, 0x1d, 0xcf, 0x34, 0xe4, 0xe2, 0x20, 0x2d, 0x40, 0xfb, 0x44, 0x19, 0xe5, 0x3e, 0xe6, 0x04, 0x3e, 0x05, 0xcb, 0xf5, 0xe0, 0x05, 0x46, 0xda, 0xe3, 0x25, 0x15, 0xb8, 0x2b, 0xfb, 0x41, 0x0a, 0xe5, 0xdc, 0xdb, 0x36, 0x18, 0xea, 0xbc, 0xef, 0x31, 0xfe, 0xf5, 0x36, 0x16, 0x23, 0x38, 0xd0, 0x02, 0x05, 0xe6, 0xf1, 0xc2, 0xf7, 0x19, 0xd6, 0x37, 0xf3, 0x16, 0x01, 0x27, 0x3e, 0xfe, 0xff, 0xde, 0x37, 0x08, 0xbb, 0xe3, 0x01, 0x33, 0xe7, 0x19, 0xe7, 0xeb, 0x12, 0x1d, 0xf2, 0xc8, 0xf9, 0x09, 0x23, 0x2b, 0x03, 0xd2, 0x25, 0xc9, 0xe2, 0xdf, 0x29, 0xd3, 0x22, 0x36, 0x1b, 0x34, 0x27, 0x39, 0xf8, 0xd9, 0xcd, 0xfb, 0x1f, 0xd0, 0xea, 0x2b, 0xf9, 0x1f, 0xb5, 0xe3, 0xb5, 0x3e, 0x07, 0xef, 0xe2, 0xd1, 0x1c, 0xcb, 0xea, 0x2c, 0x3d, 0x2b, 0x1a, 0xfc, 0xdb, 0x00, 0xd5, 0xf5, 0xea, 0xfe, 0x19, 0xff, 0x2d, 0x14, 0xed, 0x39, 0x00, 0xd3, 0xff, 0x3f, 0xc2, 0xfd, 0x01, 0xd4, 0xdb, 0xe0, 0x06, 0xf1, 0x27, 0x0b, 0x1e, 0x08, 0x36, 0x3e, 0x30, 0xb9, 0x26, 0xfe, 0xd4, 0x00, 0xd5, 0x44, 0x3b, 0x0a, 0xd2, 0xd1, 0x1d, 0x1a, 0x1e, 0x39, 0x45, 0x34, 0xd4, 0xfb, 0x1f, 0xfd, 0x02, 0xe9, 0xc0, 0x10, 0x12, 0x13, 0x00, 0xea, 0x21, 0xfc, 0xf8, 0x40, 0xfa, 0xfb, 0xd7, 0xdd, 0xd2, 0x06, 0xe4, 0x15, 0xd4, 0x4a, 0x33, 0x15, 0x2c, 0xfc, 0x08, 0x1b, 0xfb, 0xe9, 0xe6, 0xfb, 0x50, 0x2d, 0xed, 0x18, 0x1b, 0x22, 0x15, 0xcf, 0x40, 0x19, 0xd7, 0x20, 0xf8, 0x1f, 0x09, 0xc9, 0x18, 0x33, 0xec, 0xf5, 0x47, 0x20, 0xe6, 0xfe, 0xe2, 0x1c, 0xff, 0x35, 0x26, 0x05, 0x1e, 0x26, 0xe2, 0x16, 0xbb, 0x0b, 0xc3, 0x3c, 0x18, 0xcd, 0xcf, 0xe6, 0x17, 0x50, 0xfd, 0xd3, 0xfb, 0xd0, 0x15, 0x4d, 0x46, 0x45, 0x18, 0x1e, 0x3a, 0x03, 0xe7, 0xce, 0xf7, 0xce, 0xfe, 0xe6, 0xd9, 0xea, 0xde, 0x2f, 0xfb, 0xe4, 0x34, 0x07, 0xcf, 0x2a, 0x29, 0x34, 0xdc, 0xf6, 0xed, 0x36, 0xfe, 0x1e, 0x33, 0x1a, 0xe6, 0xfc, 0x31, 0xde, 0x3d, 0x2a, 0xe7, 0x4f, 0xd9, 0x4d, 0x14, 0x2f, 0x31, 0xf5, 0xf6, 0xf1, 0x07, 0x07, 0x1f, 0xaf, 0xb4, 0xec, 0x05, 0x24, 0x02, 0x36, 0x31, 0xfd, 0x36, 0x46, 0x3e, 0xe4, 0x37, 0x1f, 0x24, 0x08, 0x34, 0xfc, 0x2b, 0xcf, 0xd7, 0xd0, 0xc4, 0x00, 0xfc, 0xe4, 0xd3, 0x21, 0xb8, 0xfd, 0xce, 0x34, 0xd6, 0xc9, 0x00, 0xd0, 0xd7, 0xbf, 0xee, 0x11, 0xd9, 0x10, 0x20, 0xd6, 0x04, 0xc1, 0xd3, 0xea, 0xbb, 0xca, 0x07, 0xd4, 0x0d, 0x0d, 0x11, 0x07, 0xeb, 0x2f, 0xd9, 0xab, 0x05, 0xfa, 0xe7, 0x16, 0x0f, 0xd8, 0xe6, 0xeb, 0x15, 0x1c, 0xdf, 0x23, 0xcc, 0xeb, 0x2c, 0x13, 0x23, 0x26, 0x30, 0x1f, 0x13, 0xe4, 0xf4, 0x2b, 0xea, 0x0c, 0xcc, 0xe7, 0xd5, 0xfd, 0xf5, 0xfc, 0xdd, 0x08, 0x1b, 0xe6, 0x2f, 0xde, 0xf5, 0x00, 0xe8, 0x17, 0xed, 0xd1, 0xf7, 0x0c, 0x30, 0x39, 0x00, 0x14, 0x19, 0x13, 0xc1, 0x0f, 0x14, 0x39, 0x16, 0x11, 0x0f, 0xd4, 0xfa, 0x23, 0x1b, 0xcc, 0xc3, 0x0f, 0x06, 0x35, 0xcb, 0x15, 0xe3, 0xcb, 0x27, 0xb9, 0xe9, 0x0f, 0x15, 0xf1, 0xf6, 0x14, 0xdc, 0xe5, 0x17, 0xe2, 0x26, 0xcb, 0xf1, 0xf9, 0xee, 0x17, 0x3b, 0xed, 0xb7, 0xe7, 0xcd, 0x37, 0x05, 0x12, 0x3c, 0x16, 0xbb, 0x3a, 0xce, 0x21, 0xcd, 0x0f, 0x09, 0x20, 0xc7, 0xd1, 0x09, 0x11, 0x27, 0xe1, 0x43, 0xe6, 0xc8, 0xfb, 0x46, 0x00, 0x14, 0xc6, 0xc5, 0x35, 0xd3, 0x28, 0xd7, 0x0b, 0x19, 0xce, 0xec, 0xc2, 0x24, 0x40, 0xf9, 0x2a, 0xe1, 0x22, 0xbc, 0xd2, 0x0a, 0xda, 0x13, 0xfd, 0xfb, 0xda, 0xd2, 0xf3, 0x20, 0x03, 0xc6, 0xf0, 0x12, 0x35, 0xfe, 0xef, 0x41, 0x43, 0x0d, 0xd6, 0xef, 0xb7, 0x0c, 0x20, 0xbd, 0xff, 0x17, 0xf2, 0xfa, 0xc0, 0xbd, 0xf9, 0xde, 0x0b, 0x3e, 0x14, 0x41, 0x3e, 0xc9, 0xea, 0xfb, 0xc1, 0x05, 0x36, 0xeb, 0xd8, 0x3e, 0x29, 0xde, 0xe3, 0xf8, 0xd1, 0x2e, 0x0a, 0xcc, 0x2f, 0xfa, 0xd4, 0x29, 0xe5, 0xc1, 0xe9, 0x10, 0x40, 0x3d, 0xc0, 0x39, 0xfa, 0x16, 0xe7, 0x35, 0x25, 0xe9, 0xe8, 0x03, 0x27, 0x19, 0xcd, 0xf5, 0x02, 0xe1, 0xd2, 0xe8, 0x1d, 0xff, 0x20, 0x17, 0xf2, 0x2f, 0x1a, 0x2a, 0x41, 0x3a, 0xe5, 0x16, 0x0b, 0xd8, 0x14, 0xc2, 0xed, 0xdd, 0x0b, 0x11, 0x1d, 0x00, 0xdd, 0x2d, 0xbc, 0xde, 0x2d, 0x36, 0xc0, 0xf5, 0x3f, 0xc6, 0x12, 0xea, 0xd2, 0xd1, 0xdc, 0xea, 0xd8, 0xda, 0x35, 0xfe, 0x27, 0xc6, 0xc5, 0x27, 0xbe, 0xd7, 0x2e, 0x35, 0xd8, 0xf0, 0xd4, 0xc3, 0x0a, 0x1e, 0xeb, 0xf5, 0x15, 0x0e, 0xda, 0x17, 0x06, 0xd2, 0xf6, 0xf6, 0x1c, 0xcf, 0xf2, 0x3c, 0x33, 0x38, 0xc5, 0x43, 0xd3, 0x3e, 0x21, 0x34, 0xdc, 0x1c, 0x3d, 0xed, 0x08, 0x0c, 0xdd, 0x37, 0x0c, 0xe9, 0x08, 0xf3, 0xbe, 0xba, 0x3c, 0xc5, 0x11, 0x40, 0x3d, 0xc7, 0x38, 0xfc, 0x07, 0xdc, 0xc0, 0xfc, 0xef, 0xe2, 0xe1, 0xd6, 0x0d, 0x1c, 0x14, 0x34, 0xc6, 0x02, 0x42, 0x22, 0x3a, 0x01, 0x12, 0x37, 0x1d, 0xd3, 0xce, 0x0d, 0xde, 0xe4, 0x12, 0x2c, 0xe5, 0xe7, 0x05, 0xdf, 0xdc, 0x0b, 0x22, 0x13, 0x3f, 0xe8, 0xd3, 0xd2, 0x3f, 0x08, 0xc6, 0x0f, 0x2f, 0xd0, 0x0f, 0x1e, 0x02, 0x22, 0x2a, 0x16, 0xd0, 0xc1, 0xec, 0x38, 0xcb, 0x46, 0xe6, 0xf5, 0xf3, 0xbe, 0x2c, 0xc7, 0x38, 0xd1, 0xc5, 0xe1, 0xcb, 0xfb, 0xdd, 0xbe, 0x41, 0xc4, 0xfa, 0xde, 0x00, 0x2e, 0x3a, 0x0b, 0x1e, 0xf5, 0x05, 0x01, 0xe2, 0xc8, 0xf7, 0xba, 0x27, 0x2c, 0x3d, 0x08, 0xf2, 0xe7, 0x2a, 0x3d, 0xee, 0x31, 0x2a, 0x07, 0xfa, 0xf2, 0xe6, 0xe6, 0xce, 0xd6, 0x23, 0xd0, 0x1d, 0xfc, 0x2e, 0xeb, 0x07, 0x37, 0x25, 0xd4, 0x1e, 0x09, 0x02, 0xe9, 0xc0, 0x21, 0x40, 0x12, 0xfb, 0xd5, 0xbb, 0x31, 0xd6, 0xe6, 0xf7, 0xe1, 0x31, 0x0a, 0xd0, 0x3c, 0x38, 0x42, 0x34, 0xe6, 0xc0, 0x15, 0x1d, 0xcd, 0x1b, 0xbf, 0x04, 0xf1, 0xd7, 0xe0, 0xdd, 0xdd, 0xfa, 0xdd, 0xf1, 0x0c, 0xf3, 0x20, 0x2a, 0xbb, 0xe9, 0x02, 0xf5, 0xd7, 0x27, 0x34, 0x19, 0x21, 0xe5, 0x07, 0x3a, 0xc7, 0x00, 0xd7, 0x11, 0x2f, 0xe2, 0x41, 0x40, 0x26, 0xce, 0xcf, 0x3f, 0x04, 0x41, 0x12, 0xc2, 0xdc, 0x2e, 0x00, 0xf9, 0x1f, 0xe8, 0x11, 0x23, 0xe4, 0xd3, 0x22, 0x0b, 0xff, 0xd6, 0xea, 0x26, 0xe0, 0x2f, 0xfc, 0xf4, 0x10, 0x17, 0xce, 0x30, 0xca, 0x45, 0xdd, 0x26, 0x08, 0x39, 0x12, 0xc6, 0xd0, 0x3a, 0xde, 0x32, 0xbc, 0xcb, 0x41, 0x19, 0xed, 0xc7, 0x04, 0x0e, 0x0c, 0x3e, 0x41, 0xcf, 0xf8, 0xc7, 0xe0, 0xe0, 0x31, 0xe6, 0xee, 0x1f, 0xc3, 0xdf, 0x0d, 0x04, 0x2b, 0x40, 0x3c, 0xff, 0xde, 0x2f, 0xfa, 0x1f, 0xfc, 0x08, 0x30, 0xff, 0xec, 0x11, 0xe4, 0x2a, 0x38, 0x33, 0x3b, 0x0c, 0xe2, 0x2c, 0x20, 0x22, 0x06, 0x30, 0xd5, 0xbc, 0xf9, 0x3c, 0xeb, 0x32, 0xfd, 0xd2, 0xe0, 0xf7, 0xbc, 0x20, 0xe4, 0xec, 0x16, 0xe4, 0x02, 0x04, 0x04, 0xca, 0xcf, 0x1a, 0xf4, 0x28, 0x32, 0xc9, 0xd0, 0x0c, 0xec, 0xd2, 0xe9, 0xeb, 0x03, 0x1c, 0x41, 0xf9, 0x12, 0x21, 0xd7, 0x0a, 0xd8, 0xd3, 0xd6, 0x25, 0x43, 0x12, 0xc5, 0x2a, 0x35, 0xf9, 0xff, 0xd6, 0xbd, 0xed, 0xb9, 0xde, 0xee, 0xb8, 0x0c, 0xf5, 0xca, 0x0d, 0xbe, 0xbf, 0xbd, 0xc3, 0x00, 0x27, 0xda, 0x20, 0x19, 0xc7, 0x1f, 0xc3, 0xe7, 0x08, 0xc4, 0x2e, 0x30, 0x03, 0xda, 0x22, 0x30, 0x30, 0x0e, 0x2f, 0x1a, 0x0c, 0x2f, 0x0f, 0xf5, 0xc3, 0xba, 0xee, 0x13, 0x44, 0xd9, 0x16, 0x0e, 0x21, 0xe6, 0x1b, 0x05, 0x15, 0xea, 0x16, 0x24, 0x23, 0x27, 0x27, 0xe3, 0x3a, 0xb8, 0x14, 0xf6, 0xe5, 0x34, 0x0e, 0x02, 0xea, 0xf3, 0x36, 0x0f, 0x1b, 0x12, 0xd7, 0xeb, 0xd3, 0x29, 0xe5, 0xe8, 0xc6, 0x04, 0x07, 0x31, 0xeb, 0xf2, 0x2e, 0xdf, 0x22, 0x1b, 0x0f, 0xf3, 0x37, 0xca, 0xc8, 0xb8, 0xf0, 0xf4, 0x21, 0xeb, 0x16, 0xdb, 0xd8, 0x10, 0xfc, 0x32, 0x1f, 0x44, 0x26, 0xf7, 0xe8, 0xcf, 0x10, 0xe2, 0xc1, 0x3c, 0xd9, 0x09, 0x37, 0xf5, 0xfb, 0xc1, 0x05, 0x10, 0x2f, 0xe8, 0xde, 0x3f, 0x2f, 0xdd, 0x3a, 0x01, 0xc7, 0x27, 0xd1, 0xcd, 0xc5, 0xf4, 0x06, 0xd2, 0x0c, 0x19, 0xca, 0xc5, 0xb8, 0xca, 0x2b, 0x07, 0x04, 0x38, 0xbe, 0x25, 0xed, 0xec, 0xd0, 0xc3, 0xd7, 0xf7, 0x0a, 0x22, 0x27, 0xe1, 0x10, 0x0a, 0xd8, 0xfc, 0xd1, 0xdb, 0x09, 0xe8, 0x10, 0x3d, 0x0d, 0x3b, 0x31, 0x12, 0x21, 0xcc, 0xdb, 0xef, 0x30, 0x04, 0x0d, 0x09, 0x37, 0xd9, 0x15, 0x19, 0x3c, 0xe4, 0xca, 0xfd, 0xdd, 0x24, 0x08, 0x3e, 0x38, 0xf9, 0xc9, 0xbc, 0xe8, 0xdb, 0xe4, 0x1f, 0xc7, 0x32, 0xbf, 0xf2, 0x2c, 0x2f, 0x3e, 0xeb, 0xe5, 0xbf, 0xf0, 0x10, 0xe0, 0x44, 0xec, 0xdc, 0xc7, 0x0d, 0x30, 0x3b, 0xc3, 0x33, 0x3f, 0x31, 0xd9, 0x0f, 0xd9, 0xc9, 0xfd, 0x0b, 0x01, 0x14, 0x39, 0xd4, 0x23, 0x03, 0xc0, 0x25, 0x01, 0xd2, 0xf8, 0x23, 0x06, 0xc8, 0xc3, 0x2d, 0xec, 0xf9, 0xc3, 0x2e, 0x02, 0x15, 0xc6, 0xd1, 0x18, 0x30, 0x39, 0xf9, 0x2b, 0x3a, 0x15, 0x1d, 0xc2, 0x31, 0xc9, 0xca, 0xd9, 0x07, 0xcc, 0x29, 0x38, 0xcb, 0xc9, 0xc4, 0xe7, 0x00, 0x29, 0xd5, 0xf2, 0x03, 0xe5, 0x03, 0xd8, 0x01, 0x0d, 0xad, 0x22, 0x18, 0xed, 0xeb, 0xbd, 0x12, 0xce, 0x14, 0xd9, 0xcb, 0xfd, 0xe2, 0xce, 0x40, 0xef, 0x22, 0x44, 0xd9, 0x4c, 0xdb, 0x21, 0xe6, 0xf7, 0x1f, 0xd7, 0xef, 0x16, 0x1f, 0xef, 0x1b, 0xd7, 0xb2, 0xd7, 0xff, 0xed, 0x3e, 0xf0, 0xd1, 0xc7, 0x2e, 0xd2, 0x35, 0x08, 0x23, 0xe2, 0xf7, 0xee, 0x02, 0x09, 0x3e, 0x29, 0x2e, 0x1a, 0xd8, 0xf6, 0xd3, 0x31, 0xbe, 0xfe, 0x35, 0xb3, 0xee, 0xd5, 0xed, 0x33, 0x3d, 0xcd, 0x2e, 0x34, 0x36, 0x1e, 0x22, 0x0f, 0x14, 0xe2, 0x25, 0x36, 0x0e, 0xee, 0xd6, 0xb8, 0x0f, 0x14, 0x41, 0x38, 0xeb, 0xbb, 0xc7, 0xd8, 0xf7, 0xdc, 0xc3, 0xbc, 0x3b, 0xc6, 0xcb, 0x33, 0x09, 0x2d, 0x41, 0xc4, 0x26, 0x3f, 0x23, 0xe1, 0x36, 0xd9, 0xe3, 0xd7, 0xc3, 0xde, 0x0f, 0xe3, 0x03, 0x40, 0xee, 0xb6, 0x30, 0xd0, 0xd8, 0x27, 0xe1, 0xc6, 0xd2, 0xe9, 0xe1, 0x31, 0x1f, 0x11, 0x17, 0xff, 0x34, 0xc6, 0xdf, 0x27, 0x23, 0x25, 0xf1, 0xdc, 0x14, 0x27, 0xc3, 0x39, 0x31, 0x30, 0x2a, 0xbf, 0x1b, 0xb6, 0xbf, 0xe3, 0x2a, 0x0e, 0x2d, 0xdd, 0xde, 0xfc, 0x34, 0xfe, 0xd5, 0xf4, 0xe4, 0x16, 0x0b, 0x16, 0xbf, 0x0c, 0xd0, 0xd8, 0x10, 0xe0, 0x37, 0x20, 0x22, 0xec, 0xbb, 0xe7, 0xec, 0x0c, 0xab, 0x23, 0x13, 0x20, 0xdf, 0xdb, 0x03, 0xcc, 0xec, 0xca, 0xf1, 0xe6, 0xde, 0x38, 0xde, 0x0c, 0xd0, 0x28, 0x20, 0xad, 0x09, 0xc5, 0x16, 0xc7, 0xd0, 0xc2, 0x14, 0x29, 0xaf, 0x20, 0xe0, 0xb6, 0xd4, 0x21, 0x2c, 0x29, 0xe5, 0xb7, 0x21, 0xbe, 0xfa, 0x20, 0x1c, 0xad, 0xca, 0xcc, 0xc3, 0x35, 0xe8, 0xe2, 0x02, 0x29, 0x29, 0x3f, 0xe5, 0xbc, 0x2a, 0xd0, 0x0d, 0x9d, 0xac, 0xc0, 0xe1, 0x13, 0x0c, 0x3c, 0xf1, 0x30, 0x1f, 0x20, 0x18, 0xf3, 0x2e, 0xbf, 0xc3, 0xf5, 0x16, 0xcc, 0xe7, 0x15, 0xb1, 0x02, 0xeb, 0xc8, 0xf1, 0xde, 0xe3, 0x21, 0xdc, 0xf1, 0x0f, 0xd3, 0xc7, 0x0d, 0xdd, 0xfc, 0xbe, 0x27, 0xc3, 0xc9, 0x2f, 0xd7, 0xfb, 0x28, 0x0d, 0x20, 0x40, 0xca, 0xe9, 0xcb, 0xa2, 0xcd, 0xe2, 0xef, 0x1b, 0x11, 0xe4, 0xde, 0xe4, 0x1c, 0x32, 0xea, 0x17, 0xbf, 0xc5, 0xb6, 0xbf, 0xd8, 0xdc, 0x06, 0x14, 0xb1, 0xcd, 0xe0, 0x1d, 0xe7, 0xed, 0x18, 0x0a, 0x43, 0xf9, 0x10, 0xde, 0x04, 0xcb, 0xf7, 0x1a, 0xcf, 0x19, 0x19, 0x0d, 0xf1, 0x15, 0xe3, 0x2e, 0xbf, 0xd9, 0x12, 0x2e, 0x20, 0x11, 0x4d, 0xc4, 0xf9, 0x42, 0xb5, 0xd0, 0xfe, 0x0f, 0x2e, 0xab, 0x21, 0x35, 0xef, 0xfc, 0xe1, 0xe5, 0xcb, 0xb3, 0xf6, 0xc7, 0x28, 0xd5, 0x29, 0x4b, 0xe1, 0x2a, 0x18, 0xec, 0x2d, 0x23, 0x21, 0x01, 0xeb, 0xf6, 0xd3, 0xe4, 0xcd, 0x07, 0xd3, 0xf5, 0xad, 0x20, 0x38, 0xd8, 0x08, 0xc7, 0xb6, 0xd3, 0x45, 0xea, 0xca, 0x0d, 0xd8, 0x48, 0xba, 0xf9, 0x04, 0x18, 0xf5, 0xdc, 0xea, 0x26, 0xf2, 0xc2, 0x3f, 0x28, 0x1b, 0xe1, 0xc3, 0x32, 0xc2, 0xea, 0xfb, 0xd8, 0xdb, 0xdb, 0xd2, 0x39, 0x08, 0x0a, 0x0b, 0x0c, 0x20, 0x1c, 0xd5, 0x36, 0xf5, 0x4d, 0xf2, 0xa9, 0x41, 0x4c, 0x2b, 0xe1, 0xd3, 0x0a, 0xd0, 0x2a, 0x2c, 0xb2, 0x25, 0x34, 0xfa, 0xc9, 0xc3, 0x2f, 0xe3, 0x38, 0xd2, 0x0e, 0xcf, 0xe3, 0x3a, 0xd2, 0x2c, 0xec, 0x26, 0xd1, 0x58, 0x35, 0xd9, 0xc6, 0x52, 0x18, 0x4b, 0x51, 0x19, 0xf1, 0xcb, 0x03, 0x12, 0x12, 0xde, 0x34, 0xdb, 0xdd, 0x12, 0x06, 0x02, 0xf9, 0xdd, 0xf4, 0xf8, 0x41, 0xd4, 0x1a, 0x01, 0x22, 0xfd, 0x41, 0x4b, 0x26, 0x2d, 0x2c, 0x48, 0x23, 0xe5, 0xdd, 0xc0, 0x3f, 0xbf, 0x16, 0xde, 0xf9, 0x20, 0xf0, 0x14, 0xf3, 0x4a, 0x06, 0xe0, 0x51, 0x54, 0xf0, 0x1f, 0x35, 0x3e, 0xd8, 0x1d, 0x5b, 0xfc, 0x07, 0xe7, 0x25, 0x43, 0x15, 0xf6, 0x38, 0xf9, 0x0a, 0x08, 0x14, 0xdb, 0xc5, 0xbf, 0x1d, 0xe2, 0x4e, 0x08, 0xf6, 0x20, 0xec, 0x0b, 0x3a, 0xfc, 0x00, 0x2d, 0xe0, 0x3f, 0x5b, 0xe1, 0xeb, 0x3a, 0xdf, 0xe0, 0x2d, 0xf5, 0x09, 0xb0, 0xb9, 0xc2, 0x1d, 0x0e, 0xc0, 0xcb, 0xd5, 0xe0, 0x1d, 0x5a, 0xe0, 0x12, 0x06, 0x21, 0xe6, 0x53, 0x45, 0x1f, 0xfa, 0x05, 0x0a, 0x18, 0x53, 0xff, 0xf9, 0x22, 0x53, 0x22, 0x1c, 0xcf, 0x15, 0xfd, 0x13, 0xdb, 0x04, 0xbd, 0x35, 0x22, 0x01, 0x09, 0xfc, 0x39, 0xed, 0x15, 0x4f, 0x45, 0xfe, 0x2a, 0x12, 0x23, 0x26, 0x3c, 0x28, 0x65, 0x0c, 0x3b, 0x00, 0x21, 0xe0, 0xc0, 0xba, 0xe4, 0x14, 0xa7, 0x19, 0xdb, 0x07, 0x1c, 0x60, 0x31, 0x24, 0x22, 0x61, 0xfa, 0x11, 0x1f, 0x0b, 0x12, 0x16, 0x4b, 0xe3, 0x1a, 0x59, 0x59, 0x1c, 0x5d, 0x09, 0x44, 0xb1, 0xf3, 0x2a, 0x1a, 0x23, 0xac, 0xd9, 0xf1, 0x24, 0xcc, 0xf4, 0x43, 0x60, 0x3d, 0x04, 0xea, 0x59, 0x23, 0x40, 0x13, 0x03, 0x21, 0x03, 0x17, 0x65, 0x45, 0xde, 0x22, 0xef, 0x30, 0x00, 0x02, 0x15, 0x1a, 0xe2, 0xe3, 0xba, 0xcf, 0xf5, 0x15, 0x20, 0x31, 0xf3, 0xf1, 0x2e, 0xf1, 0x1c, 0xfd, 0x4c, 0x0b, 0x4a, 0x1b, 0x4f, 0x4a, 0xec, 0x10, 0x07, 0x0f, 0x42, 0xed, 0x33, 0xc6, 0xf7, 0x43, 0x2b, 0xec, 0xaf, 0xad, 0x08, 0x1e, 0xf3, 0x41, 0xe5, 0x3e, 0x38, 0xd8, 0x53, 0xfd, 0x0f, 0x17, 0x53, 0xfc, 0x61, 0x31, 0xed, 0xfe, 0x00, 0xe7, 0x1b, 0x18, 0xec, 0xd3, 0x37, 0xc5, 0x25, 0xf7, 0xbc, 0x07, 0xe5, 0x32, 0x2e, 0x13, 0x17, 0xd7, 0xed, 0x06, 0x50, 0x57, 0xf8, 0x52, 0x50, 0x04, 0x3a, 0x1a, 0x09, 0x5a, 0x5a, 0x3b, 0xce, 0x01, 0x29, 0xb8, 0xdc, 0x36, 0xe3, 0x30, 0x3b, 0xef, 0xe8, 0xd2, 0x0c, 0xb6, 0x36, 0x20, 0xea, 0x14, 0x1c, 0x12, 0x45, 0x5d, 0xe6, 0x29, 0x33, 0x4a, 0xdc, 0x3d, 0x37, 0xd0, 0xf3, 0x2d, 0x35, 0xc6, 0x1f, 0xf1, 0xda, 0xcd, 0xca, 0x2e, 0x1f, 0xcd, 0xd8, 0x43, 0x2d, 0xdd, 0xc8, 0xe6, 0xfd, 0x2f, 0xe2, 0x57, 0x57, 0x2f, 0x0c, 0xeb, 0xeb, 0x0e, 0x02, 0xe4, 0x09, 0xf9, 0xe6, 0x35, 0xcf, 0xec, 0xf1, 0xbf, 0x0e, 0x3d, 0x34, 0xe1, 0x16, 0xf9, 0x26, 0x2a, 0xfa, 0xe2, 0x29, 0x42, 0x4a, 0x53, 0xe1, 0x25, 0xf7, 0x5d, 0xee, 0xdd, 0xf3, 0xfb, 0xe7, 0xdd, 0xf8, 0xcd, 0x05, 0xce, 0xd6, 0xe1, 0x08, 0xcb, 0x15, 0xea, 0x30, 0xf9, 0xf3, 0x0c, 0x45, 0xc9, 0x28, 0x0e, 0x5f, 0x5e, 0x4c, 0x1e, 0xd2, 0xfa, 0xe1, 0xe7, 0x26, 0xb8, 0xfb, 0xc4, 0xc7, 0xbf, 0x0e, 0x1b, 0xd0, 0x29, 0x3e, 0x2e, 0xe0, 0xdd, 0xeb, 0x3b, 0x28, 0xce, 0xfb, 0xd3, 0x21, 0x44, 0x51, 0x22, 0x42, 0x06, 0x08, 0x02, 0xd6, 0xeb, 0xdb, 0x02, 0xfd, 0xf2, 0x1c, 0xd6, 0x12, 0xcc, 0x1c, 0xf3, 0xd9, 0xd6, 0x33, 0x33, 0x0c, 0xec, 0xea, 0xf3, 0xd7, 0x25, 0xff, 0x3a, 0x47, 0xf5, 0x25, 0x03, 0xfc, 0x57, 0xf4, 0x47, 0x07, 0x11, 0xc4, 0x5c, 0x59, 0xf4, 0x24, 0x14, 0x52, 0x40, 0x12, 0x30, 0xf2, 0x00, 0x14, 0xe8, 0x1e, 0xda, 0x04, 0x29, 0xf4, 0xf3, 0x39, 0x67, 0x08, 0xeb, 0x60, 0x11, 0xff, 0x36, 0xb7, 0xa9, 0x11, 0x5b, 0xdc, 0xf8, 0xd5, 0x35, 0x39, 0x17, 0xde, 0x36, 0xec, 0x3a, 0x07, 0x43, 0xf3, 0x44, 0x13, 0x5a, 0x02, 0x4e, 0x57, 0xf3, 0x50, 0x42, 0x5a, 0xfc, 0x5e, 0x02, 0x0b, 0xce, 0xdd, 0x2a, 0x54, 0x45, 0x2d, 0x25, 0x13, 0x4e, 0x41, 0x30, 0xc1, 0x0d, 0x3a, 0x43, 0x57, 0x0f, 0x58, 0x10, 0x22, 0x12, 0x0c, 0x12, 0x3e, 0x30, 0x68, 0x08, 0x59, 0x3e, 0x39, 0x0c, 0x2b, 0x3b, 0x02, 0x41, 0x0a, 0x2e, 0x08, 0x07, 0x0d, 0x1d, 0xc9, 0x11, 0xf4, 0xfc, 0x58, 0x22, 0xfb, 0x49, 0x43, 0x23, 0x21, 0x57, 0x14, 0xea, 0x5e, 0x60, 0xec, 0x03, 0x6c, 0xdf, 0xf5, 0x12, 0x18, 0x30, 0x04, 0xf0, 0x53, 0x0c, 0xf0, 0x24, 0x3c, 0xff, 0x1a, 0x4e, 0x5f, 0x02, 0x61, 0x52, 0x16, 0x26, 0x2b, 0x39, 0x5c, 0x2c, 0x03, 0x4b, 0x0c, 0x4b, 0x6c, 0x0c, 0x00, 0x2f, 0xef, 0x0f, 0xfe, 0x12, 0x46, 0xe0, 0x51, 0x37, 0xed, 0x50, 0x13, 0x69, 0x24, 0x02, 0xfe, 0x34, 0x2f, 0xe2, 0xe9, 0x6a, 0x0c, 0x4b, 0x0c, 0x6a, 0x69, 0x6c, 0x0d, 0x0f, 0x38, 0x21, 0x2e, 0x21, 0x14, 0x54, 0xd3, 0x4a, 0x23, 0x4b, 0x0a, 0x44, 0x3d, 0x1d, 0x5e, 0x64, 0x1e, 0x0a, 0x39, 0x4f, 0x05, 0x6d, 0x02, 0x61, 0x03, 0x4b, 0xf4, 0x49, 0x68, 0x09, 0xec, 0x4e, 0xf2, 0x59, 0x36, 0x39, 0x16, 0x10, 0x43, 0xf8, 0x3a, 0x34, 0x29, 0x01, 0xf7, 0x2d, 0x14, 0x44, 0x01, 0x5c, 0x2e, 0x25, 0x43, 0x3e, 0x46, 0x05, 0xf0, 0xf2, 0x74, 0xf1, 0x07, 0x35, 0xd9, 0x45, 0x57, 0x12, 0x24, 0x5e, 0x4c, 0x56, 0x29, 0x2d, 0x21, 0x0c, 0x5e, 0x25, 0x2a, 0x66, 0xe8, 0xfc, 0x25, 0x02, 0xf5, 0x44, 0x01, 0x11, 0x62, 0xf2, 0x6f, 0x7f, 0x47, 0x2f, 0x26, 0xcd, 0x14, 0xbc, 0xff, 0x14, 0xeb, 0xd7, 0x38, 0xf6, 0xe3, 0x06, 0x2d, 0x21, 0xf1, 0x19, 0xf0, 0x16, 0xea, 0x5f, 0x27, 0x1b, 0x11, 0x43, 0x1f, 0x10, 0x17, 0x6e, 0x0d, 0x62, 0x1e, 0x13, 0x1e, 0x02, 0x2d, 0xd1, 0xe1, 0x44, 0x43, 0x4b, 0x24, 0xe1, 0x32, 0xea, 0x3d, 0x2e, 0x11, 0x60, 0x2f, 0x07, 0xca, 0x37, 0xf6, 0x42, 0x76, 0x07, 0xf1, 0x11, 0x19, 0xea, 0xd0, 0x1c, 0x24, 0xf8, 0xd1, 0x2b, 0x4e, 0x2b, 0xf6, 0x41, 0x17, 0x25, 0xce, 0xfc, 0x10, 0xe1, 0x60, 0x38, 0xea, 0x28, 0x1f, 0x29, 0x1c, 0x35, 0x5f, 0x2f, 0x39, 0x0a, 0xe2, 0x1f, 0x36, 0x46, 0x21, 0xc0, 0x31, 0xde, 0x4a, 0x40, 0xf6, 0x55, 0xe9, 0x03, 0x63, 0x32, 0x3f, 0x09, 0xe7, 0x37, 0x20, 0xec, 0x08, 0x47, 0x1f, 0xfc, 0xed, 0x14, 0x34, 0x65, 0xed, 0x3c, 0x2f, 0x18, 0xdd, 0x14, 0xd4, 0x19, 0x55, 0xd7, 0x04, 0x34, 0x1c, 0x05, 0x43, 0x62, 0xf2, 0xf9, 0x0c, 0xf7, 0x51, 0x20, 0xe8, 0xee, 0xcb, 0xec, 0x11, 0x36, 0xdc, 0x55, 0xe2, 0x00, 0x15, 0xcb, 0x2e, 0xba, 0x19, 0x08, 0x28, 0xf5, 0xfe, 0xf9, 0xe6, 0xfd, 0xff, 0x27, 0x48, 0x20, 0x5b, 0xf7, 0x1a, 0x0e, 0xd6, 0xf9, 0xfa, 0xe0, 0x06, 0xd9, 0xf1, 0xee, 0x3a, 0x33, 0x29, 0x34, 0x37, 0x1c, 0xeb, 0xdb, 0x20, 0x51, 0xdf, 0xe6, 0x13, 0x48, 0x13, 0x33, 0x62, 0xe4, 0x2b, 0x0e, 0xf2, 0x1a, 0x12, 0x18, 0x17, 0xfd, 0x15, 0xdd, 0xfd, 0x11, 0x34, 0x06, 0x63, 0xfa, 0x1c, 0x0e, 0xf1, 0x25, 0xe9, 0x3b, 0x5f, 0xf1, 0x3d, 0xbb, 0x17, 0x33, 0x44, 0xd8, 0x99, 0xe1, 0x08, 0x08, 0x1e, 0x04, 0xb2, 0xdf, 0xf0, 0x40, 0x28, 0xc5, 0xc1, 0xd8, 0x29, 0xd6, 0xf8, 0xe3, 0xcf, 0xd1, 0x4c, 0x15, 0xe6, 0x10, 0xfb, 0xea, 0x0b, 0xdf, 0xdc, 0x1c, 0xff, 0x09, 0xce, 0x14, 0xd8, 0xea, 0xd6, 0xb1, 0xb1, 0x1d, 0x27, 0xe7, 0x1d, 0xc2, 0xdf, 0xd5, 0x37, 0xce, 0x2c, 0xe9, 0xeb, 0xe1, 0x08, 0xe2, 0xf3, 0x0b, 0x0a, 0x5f, 0x35, 0xf8, 0x53, 0x0d, 0x0e, 0xc8, 0x1f, 0x21, 0xb7, 0xb3, 0x06, 0xdc, 0xdb, 0x9e, 0xf0, 0xf7, 0xc8, 0xc3, 0xc2, 0xbd, 0xe2, 0x16, 0xd8, 0x0a, 0xef, 0xed, 0xe3, 0x1d, 0x1f, 0x0c, 0xc6, 0xbf, 0x02, 0x1c, 0xf3, 0x08, 0xcd, 0xad, 0xa9, 0xb8, 0x12, 0xe4, 0xce, 0xe4, 0x3d, 0x1b, 0x4a, 0xea, 0x1e, 0xcf, 0xf0, 0xe6, 0xd9, 0x26, 0x27, 0x21, 0xe9, 0xbc, 0xcf, 0xe1, 0x44, 0xe9, 0x2a, 0x3f, 0xe8, 0x03, 0x1d, 0xed, 0x9f, 0xe7, 0xc0, 0xb6, 0x0d, 0x59, 0x26, 0x31, 0x34, 0x3d, 0xec, 0x32, 0xd0, 0xf2, 0x41, 0xed, 0x45, 0x3a, 0x54, 0xfd, 0xf9, 0xae, 0xc4, 0xa8, 0xc5, 0x3a, 0x07, 0x03, 0xb2, 0x9f, 0x02, 0x05, 0xc5, 0xbb, 0x0a, 0x10, 0xf7, 0x48, 0xd5, 0x14, 0xe7, 0x3e, 0x33, 0xe8, 0x29, 0xe7, 0xd7, 0x00, 0x53, 0x1d, 0x0f, 0x20, 0x08, 0xe1, 0xf5, 0x1c, 0x25, 0xef, 0x0f, 0x20, 0xaf, 0xce, 0xff, 0xb9, 0xeb, 0xd6, 0xe7, 0x11, 0x2b, 0x0e, 0xd2, 0xde, 0xc3, 0xe3, 0xc7, 0xde, 0xeb, 0x21, 0x07, 0x09, 0x68, 0xf1, 0x42, 0x0e, 0x23, 0xc5, 0x1d, 0xe9, 0xad, 0xe3, 0xd0, 0xf0, 0x97, 0xca, 0xee, 0x4e, 0x69, 0x1d, 0xf9, 0x3a, 0x09, 0xe8, 0xd8, 0xe6, 0x36, 0xc1, 0xe9, 0xfd, 0x3b, 0x59, 0x62, 0x23, 0x40, 0xed, 0xe5, 0xeb, 0xa4, 0xbf, 0x13, 0xd9, 0xb8, 0x1d, 0xd3, 0x2a, 0x47, 0x1c, 0x15, 0x28, 0x4a, 0xdf, 0xdf, 0xd0, 0xe1, 0x27, 0x2f, 0xc9, 0x1c, 0x26, 0x14, 0x6d, 0x43, 0xe9, 0x1a, 0xe4, 0x53, 0xb7, 0x40, 0xcc, 0x1d, 0xd3, 0xf3, 0xd2, 0x34, 0x58, 0x3b, 0x47, 0xd5, 0xdc, 0x0c, 0x13, 0x05, 0xd9, 0x42, 0xfd, 0x35, 0x2b, 0x13, 0x59, 0xe8, 0xf6, 0x09, 0x56, 0xea, 0xe0, 0xe8, 0x11, 0x2c, 0x45, 0x5a, 0x0e, 0x40, 0x25, 0xfa, 0x3f, 0xdd, 0x03, 0xd5, 0x26, 0x1d, 0x2b, 0x36, 0xc2, 0x01, 0xd1, 0x1a, 0x22, 0x25, 0x28, 0x02, 0x15, 0xfd, 0xe2, 0x4e, 0x30, 0xe7, 0x1b, 0x43, 0xf3, 0x36, 0xf3, 0x30, 0x57, 0x52, 0xf7, 0x3b, 0x3c, 0x34, 0x15, 0x06, 0xf8, 0x23, 0x14, 0xc6, 0xff, 0xff, 0xff, 0x04, 0x00, 0x00, 0x00, 0x04, 0x00, 0x00, 0x00, 0x45, 0x9d, 0xb6, 0x3d, 0xd6, 0xff, 0xff, 0xff, 0x04, 0x00, 0x00, 0x00, 0x14, 0x00, 0x00, 0x00, 0xdf, 0x70, 0xed, 0x3d, 0x35, 0x5a, 0x58, 0xbb, 0xbf, 0x06, 0x53, 0xbb, 0xe5, 0x83, 0xc2, 0xbc, 0x55, 0x68, 0x76, 0xbd, 0x00, 0x00, 0x00, 0x00, 0x00, 0x00, 0x00, 0x00, 0x00, 0x00, 0x06, 0x00, 0x08, 0x00, 0x04, 0x00, 0x06, 0x00, 0x00, 0x00, 0x04, 0x00, 0x00, 0x00, 0x14, 0x00, 0x00, 0x00, 0xa1, 0x8c, 0x34, 0xbc, 0xcb, 0xb0, 0x5c, 0xba, 0x1c, 0x95, 0x9c, 0xbc, 0x25, 0x38, 0x0c, 0x3d, 0xac, 0xad, 0x6b, 0x3d, 0x00, 0x00, 0x00, 0x00, 0x00, 0x00, 0x00, 0x00, 0x04, 0xfb, 0xff, 0xff, 0x00, 0x00, 0x00, 0x00, 0x00, 0x00, 0x00, 0x00, 0x00, 0x00, 0x00, 0x00, 0x14, 0xfb, 0xff, 0xff, 0x0f, 0x00, 0x00, 0x00, 0x4d, 0x4c, 0x49, 0x52, 0x20, 0x43, 0x6f, 0x6e, 0x76, 0x65, 0x72, 0x74, 0x65, 0x64, 0x2e, 0x00, 0x01, 0x00, 0x00, 0x00, 0x14, 0x00, 0x00, 0x00, 0x00, 0x00, 0x0e, 0x00, 0x18, 0x00, 0x04, 0x00, 0x08, 0x00, 0x0c, 0x00, 0x10, 0x00, 0x14, 0x00, 0x0e, 0x00, 0x00, 0x00, 0x30, 0x01, 0x00, 0x00, 0x24, 0x01, 0x00, 0x00, 0x18, 0x01, 0x00, 0x00, 0x14, 0x00, 0x00, 0x00, 0x04, 0x00, 0x00, 0x00, 0x04, 0x00, 0x00, 0x00, 0x6d, 0x61, 0x69, 0x6e, 0x00, 0x00, 0x00, 0x00, 0x04, 0x00, 0x00, 0x00, 0xc0, 0x00, 0x00, 0x00, 0x78, 0x00, 0x00, 0x00, 0x34, 0x00, 0x00, 0x00, 0x10, 0x00, 0x00, 0x00, 0x00, 0x00, 0x0a, 0x00, 0x10, 0x00, 0x04, 0x00, 0x08, 0x00, 0x0c, 0x00, 0x0a, 0x00, 0x00, 0x00, 0x01, 0x00, 0x00, 0x00, 0x10, 0x00, 0x00, 0x00, 0x04, 0x00, 0x00, 0x00, 0x01, 0x00, 0x00, 0x00, 0x0a, 0x00, 0x00, 0x00, 0x01, 0x00, 0x00, 0x00, 0x09, 0x00, 0x00, 0x00, 0xce, 0xff, 0xff, 0xff, 0x00, 0x00, 0x00, 0x08, 0x18, 0x00, 0x00, 0x00, 0x0c, 0x00, 0x00, 0x00, 0x04, 0x00, 0x00, 0x00, 0xbc, 0xfb, 0xff, 0xff, 0x01, 0x00, 0x00, 0x00, 0x09, 0x00, 0x00, 0x00, 0x03, 0x00, 0x00, 0x00, 0x08, 0x00, 0x00, 0x00, 0x06, 0x00, 0x00, 0x00, 0x03, 0x00, 0x00, 0x00, 0x00, 0x00, 0x0e, 0x00, 0x14, 0x00, 0x00, 0x00, 0x08, 0x00, 0x0c, 0x00, 0x07, 0x00, 0x10, 0x00, 0x0e, 0x00, 0x00, 0x00, 0x00, 0x00, 0x00, 0x08, 0x1c, 0x00, 0x00, 0x00, 0x10, 0x00, 0x00, 0x00, 0x04, 0x00, 0x00, 0x00, 0xba, 0xff, 0xff, 0xff, 0x00, 0x00, 0x00, 0x01, 0x01, 0x00, 0x00, 0x00, 0x08, 0x00, 0x00, 0x00, 0x03, 0x00, 0x00, 0x00, 0x07, 0x00, 0x00, 0x00, 0x05, 0x00, 0x00, 0x00, 0x02, 0x00, 0x00, 0x00, 0x00, 0x00, 0x0e, 0x00, 0x16, 0x00, 0x00, 0x00, 0x08, 0x00, 0x0c, 0x00, 0x07, 0x00, 0x10, 0x00, 0x0e, 0x00, 0x00, 0x00, 0x00, 0x00, 0x00, 0x08, 0x24, 0x00, 0x00, 0x00, 0x18, 0x00, 0x00, 0x00, 0x0c, 0x00, 0x00, 0x00, 0x00, 0x00, 0x06, 0x00, 0x08, 0x00, 0x07, 0x00, 0x06, 0x00, 0x00, 0x00, 0x00, 0x00, 0x00, 0x01, 0x01, 0x00, 0x00, 0x00, 0x07, 0x00, 0x00, 0x00, 0x03, 0x00, 0x00, 0x00, 0x00, 0x00, 0x00, 0x00, 0x04, 0x00, 0x00, 0x00, 0x01, 0x00, 0x00, 0x00, 0x01, 0x00, 0x00, 0x00, 0x0a, 0x00, 0x00, 0x00, 0x01, 0x00, 0x00, 0x00, 0x00, 0x00, 0x00, 0x00, 0x0b, 0x00, 0x00, 0x00, 0x70, 0x03, 0x00, 0x00, 0x0c, 0x03, 0x00, 0x00, 0xb8, 0x02, 0x00, 0x00, 0x64, 0x02, 0x00, 0x00, 0xf0, 0x01, 0x00, 0x00, 0x98, 0x01, 0x00, 0x00, 0x50, 0x01, 0x00, 0x00, 0xec, 0x00, 0x00, 0x00, 0x88, 0x00, 0x00, 0x00, 0x3c, 0x00, 0x00, 0x00, 0x04, 0x00, 0x00, 0x00, 0xca, 0xfc, 0xff, 0xff, 0x24, 0x00, 0x00, 0x00, 0x0b, 0x00, 0x00, 0x00, 0x0c, 0x00, 0x00, 0x00, 0x04, 0x00, 0x00, 0x00, 0xbc, 0xfc, 0xff, 0xff, 0x08, 0x00, 0x00, 0x00, 0x49, 0x64, 0x65, 0x6e, 0x74, 0x69, 0x74, 0x79, 0x00, 0x00, 0x00, 0x00, 0x02, 0x00, 0x00, 0x00, 0x01, 0x00, 0x00, 0x00, 0x01, 0x00, 0x00, 0x00, 0xfe, 0xfc, 0xff, 0xff, 0x38, 0x00, 0x00, 0x00, 0x0a, 0x00, 0x00, 0x00, 0x0c, 0x00, 0x00, 0x00, 0x04, 0x00, 0x00, 0x00, 0xf0, 0xfc, 0xff, 0xff, 0x1c, 0x00, 0x00, 0x00, 0x73, 0x65, 0x71, 0x75, 0x65, 0x6e, 0x74, 0x69, 0x61, 0x6c, 0x5f, 0x31, 0x2f, 0x64, 0x65, 0x6e, 0x73, 0x65, 0x5f, 0x35, 0x2f, 0x42, 0x69, 0x61, 0x73, 0x41, 0x64, 0x64, 0x00, 0x00, 0x00, 0x00, 0x02, 0x00, 0x00, 0x00, 0x01, 0x00, 0x00, 0x00, 0x01, 0x00, 0x00, 0x00, 0x46, 0xfd, 0xff, 0xff, 0x50, 0x00, 0x00, 0x00, 0x09, 0x00, 0x00, 0x00, 0x0c, 0x00, 0x00, 0x00, 0x04, 0x00, 0x00, 0x00, 0x38, 0xfd, 0xff, 0xff, 0x36, 0x00, 0x00, 0x00, 0x73, 0x65, 0x71, 0x75, 0x65, 0x6e, 0x74, 0x69, 0x61, 0x6c, 0x5f, 0x31, 0x2f, 0x64, 0x65, 0x6e, 0x73, 0x65, 0x5f, 0x34, 0x2f, 0x52, 0x65, 0x6c, 0x75, 0x3b, 0x73, 0x65, 0x71, 0x75, 0x65, 0x6e, 0x74, 0x69, 0x61, 0x6c, 0x5f, 0x31, 0x2f, 0x64, 0x65, 0x6e, 0x73, 0x65, 0x5f, 0x34, 0x2f, 0x42, 0x69, 0x61, 0x73, 0x41, 0x64, 0x64, 0x00, 0x00, 0x02, 0x00, 0x00, 0x00, 0x01, 0x00, 0x00, 0x00, 0x05, 0x00, 0x00, 0x00, 0xa6, 0xfd, 0xff, 0xff, 0x50, 0x00, 0x00, 0x00, 0x08, 0x00, 0x00, 0x00, 0x0c, 0x00, 0x00, 0x00, 0x04, 0x00, 0x00, 0x00, 0x98, 0xfd, 0xff, 0xff, 0x36, 0x00, 0x00, 0x00, 0x73, 0x65, 0x71, 0x75, 0x65, 0x6e, 0x74, 0x69, 0x61, 0x6c, 0x5f, 0x31, 0x2f, 0x64, 0x65, 0x6e, 0x73, 0x65, 0x5f, 0x33, 0x2f, 0x52, 0x65, 0x6c, 0x75, 0x3b, 0x73, 0x65, 0x71, 0x75, 0x65, 0x6e, 0x74, 0x69, 0x61, 0x6c, 0x5f, 0x31, 0x2f, 0x64, 0x65, 0x6e, 0x73, 0x65, 0x5f, 0x33, 0x2f, 0x42, 0x69, 0x61, 0x73, 0x41, 0x64, 0x64, 0x00, 0x00, 0x02, 0x00, 0x00, 0x00, 0x01, 0x00, 0x00, 0x00, 0x05, 0x00, 0x00, 0x00, 0x06, 0xfe, 0xff, 0xff, 0x34, 0x00, 0x00, 0x00, 0x07, 0x00, 0x00, 0x00, 0x0c, 0x00, 0x00, 0x00, 0x04, 0x00, 0x00, 0x00, 0xf8, 0xfd, 0xff, 0xff, 0x1b, 0x00, 0x00, 0x00, 0x73, 0x65, 0x71, 0x75, 0x65, 0x6e, 0x74, 0x69, 0x61, 0x6c, 0x5f, 0x31, 0x2f, 0x64, 0x65, 0x6e, 0x73, 0x65, 0x5f, 0x35, 0x2f, 0x4d, 0x61, 0x74, 0x4d, 0x75, 0x6c, 0x00, 0x02, 0x00, 0x00, 0x00, 0x01, 0x00, 0x00, 0x00, 0x05, 0x00, 0x00, 0x00, 0x4a, 0xfe, 0xff, 0xff, 0x34, 0x00, 0x00, 0x00, 0x06, 0x00, 0x00, 0x00, 0x0c, 0x00, 0x00, 0x00, 0x04, 0x00, 0x00, 0x00, 0x3c, 0xfe, 0xff, 0xff, 0x1b, 0x00, 0x00, 0x00, 0x73, 0x65, 0x71, 0x75, 0x65, 0x6e, 0x74, 0x69, 0x61, 0x6c, 0x5f, 0x31, 0x2f, 0x64, 0x65, 0x6e, 0x73, 0x65, 0x5f, 0x34, 0x2f, 0x4d, 0x61, 0x74, 0x4d, 0x75, 0x6c, 0x00, 0x02, 0x00, 0x00, 0x00, 0x05, 0x00, 0x00, 0x00, 0x05, 0x00, 0x00, 0x00, 0x00, 0x00, 0x0e, 0x00, 0x18, 0x00, 0x08, 0x00, 0x07, 0x00, 0x0c, 0x00, 0x10, 0x00, 0x14, 0x00, 0x0e, 0x00, 0x00, 0x00, 0x00, 0x00, 0x00, 0x09, 0x5c, 0x00, 0x00, 0x00, 0x05, 0x00, 0x00, 0x00, 0x34, 0x00, 0x00, 0x00, 0x10, 0x00, 0x00, 0x00, 0x0c, 0x00, 0x0c, 0x00, 0x00, 0x00, 0x00, 0x00, 0x04, 0x00, 0x08, 0x00, 0x0c, 0x00, 0x00, 0x00, 0x14, 0x00, 0x00, 0x00, 0x04, 0x00, 0x00, 0x00, 0x01, 0x00, 0x00, 0x00, 0x00, 0x00, 0x00, 0x00, 0x00, 0x00, 0x00, 0x00, 0x01, 0x00, 0x00, 0x00, 0xbe, 0x75, 0x9b, 0x3a, 0x1b, 0x00, 0x00, 0x00, 0x73, 0x65, 0x71, 0x75, 0x65, 0x6e, 0x74, 0x69, 0x61, 0x6c, 0x5f, 0x31, 0x2f, 0x64, 0x65, 0x6e, 0x73, 0x65, 0x5f, 0x33, 0x2f, 0x4d, 0x61, 0x74, 0x4d, 0x75, 0x6c, 0x00, 0x02, 0x00, 0x00, 0x00, 0x05, 0x00, 0x00, 0x00, 0x84, 0x03, 0x00, 0x00, 0x0e, 0xff, 0xff, 0xff, 0x44, 0x00, 0x00, 0x00, 0x04, 0x00, 0x00, 0x00, 0x0c, 0x00, 0x00, 0x00, 0x04, 0x00, 0x00, 0x00, 0x00, 0xff, 0xff, 0xff, 0x2b, 0x00, 0x00, 0x00, 0x73, 0x65, 0x71, 0x75, 0x65, 0x6e, 0x74, 0x69, 0x61, 0x6c, 0x5f, 0x31, 0x2f, 0x64, 0x65, 0x6e, 0x73, 0x65, 0x5f, 0x35, 0x2f, 0x42, 0x69, 0x61, 0x73, 0x41, 0x64, 0x64, 0x2f, 0x52, 0x65, 0x61, 0x64, 0x56, 0x61, 0x72, 0x69, 0x61, 0x62, 0x6c, 0x65, 0x4f, 0x70, 0x00, 0x01, 0x00, 0x00, 0x00, 0x01, 0x00, 0x00, 0x00, 0x5e, 0xff, 0xff, 0xff, 0x44, 0x00, 0x00, 0x00, 0x03, 0x00, 0x00, 0x00, 0x0c, 0x00, 0x00, 0x00, 0x04, 0x00, 0x00, 0x00, 0x50, 0xff, 0xff, 0xff, 0x2b, 0x00, 0x00, 0x00, 0x73, 0x65, 0x71, 0x75, 0x65, 0x6e, 0x74, 0x69, 0x61, 0x6c, 0x5f, 0x31, 0x2f, 0x64, 0x65, 0x6e, 0x73, 0x65, 0x5f, 0x34, 0x2f, 0x42, 0x69, 0x61, 0x73, 0x41, 0x64, 0x64, 0x2f, 0x52, 0x65, 0x61, 0x64, 0x56, 0x61, 0x72, 0x69, 0x61, 0x62, 0x6c, 0x65, 0x4f, 0x70, 0x00, 0x01, 0x00, 0x00, 0x00, 0x05, 0x00, 0x00, 0x00, 0xae, 0xff, 0xff, 0xff, 0x44, 0x00, 0x00, 0x00, 0x02, 0x00, 0x00, 0x00, 0x0c, 0x00, 0x00, 0x00, 0x04, 0x00, 0x00, 0x00, 0xa0, 0xff, 0xff, 0xff, 0x2b, 0x00, 0x00, 0x00, 0x73, 0x65, 0x71, 0x75, 0x65, 0x6e, 0x74, 0x69, 0x61, 0x6c, 0x5f, 0x31, 0x2f, 0x64, 0x65, 0x6e, 0x73, 0x65, 0x5f, 0x33, 0x2f, 0x42, 0x69, 0x61, 0x73, 0x41, 0x64, 0x64, 0x2f, 0x52, 0x65, 0x61, 0x64, 0x56, 0x61, 0x72, 0x69, 0x61, 0x62, 0x6c, 0x65, 0x4f, 0x70, 0x00, 0x01, 0x00, 0x00, 0x00, 0x05, 0x00, 0x00, 0x00, 0x00, 0x00, 0x0e, 0x00, 0x14, 0x00, 0x04, 0x00, 0x00, 0x00, 0x08, 0x00, 0x0c, 0x00, 0x10, 0x00, 0x0e, 0x00, 0x00, 0x00, 0x2c, 0x00, 0x00, 0x00, 0x01, 0x00, 0x00, 0x00, 0x10, 0x00, 0x00, 0x00, 0x08, 0x00, 0x00, 0x00, 0x04, 0x00, 0x04, 0x00, 0x04, 0x00, 0x00, 0x00, 0x0d, 0x00, 0x00, 0x00, 0x64, 0x65, 0x6e, 0x73, 0x65, 0x5f, 0x33, 0x5f, 0x69, 0x6e, 0x70, 0x75, 0x74, 0x00, 0x00, 0x00, 0x02, 0x00, 0x00, 0x00, 0x01, 0x00, 0x00, 0x00, 0x84, 0x03, 0x00, 0x00, 0x02, 0x00, 0x00, 0x00, 0x20, 0x00, 0x00, 0x00, 0x0c, 0x00, 0x00, 0x00, 0x00, 0x00, 0x06, 0x00, 0x06, 0x00, 0x05, 0x00, 0x06, 0x00, 0x00, 0x00, 0x00, 0x0e, 0x0a, 0x00, 0x0c, 0x00, 0x07, 0x00, 0x00, 0x00, 0x08, 0x00, 0x0a, 0x00, 0x00, 0x00, 0x00, 0x00, 0x00, 0x09, 0x03, 0x00, 0x00, 0x00};
const int model_data_len = 6384;