
#ifdef __has_attribute
#define HAVE_ATTRIBUTE(x) __has_attribute(x)
#else
#define HAVE_ATTRIBUTE(x) 0
#endif
#if HAVE_ATTRIBUTE(aligned) || (defined(__GNUC__) && !defined(__clang__))
#define DATA_ALIGN_ATTRIBUTE __attribute__((aligned(4)))
#else
#define DATA_ALIGN_ATTRIBUTE
#endif

const unsigned char model_data[] DATA_ALIGN_ATTRIBUTE = {0x0c, 0x00, 0x00, 0x00, 0x54, 0x46, 0x4c, 0x33, 0x00, 0x00, 0x00, 0x00, 0x96, 0xed, 0xff, 0xff, 0x03, 0x00, 0x00, 0x00, 0x14, 0x16, 0x00, 0x00, 0x54, 0x12, 0x00, 0x00, 0x3c, 0x12, 0x00, 0x00, 0x04, 0x00, 0x00, 0x00, 0x09, 0x00, 0x00, 0x00, 0x2c, 0x12, 0x00, 0x00, 0x24, 0x12, 0x00, 0x00, 0x00, 0x12, 0x00, 0x00, 0xe4, 0x11, 0x00, 0x00, 0x40, 0x00, 0x00, 0x00, 0x1c, 0x00, 0x00, 0x00, 0x14, 0x00, 0x00, 0x00, 0x0c, 0x00, 0x00, 0x00, 0x04, 0x00, 0x00, 0x00, 0x4c, 0xea, 0xff, 0xff, 0x50, 0xea, 0xff, 0xff, 0x54, 0xea, 0xff, 0xff, 0x2e, 0xee, 0xff, 0xff, 0x04, 0x00, 0x00, 0x00, 0x14, 0x00, 0x00, 0x00, 0x85, 0x7e, 0x0a, 0x3e, 0x9f, 0x5c, 0x0a, 0xbf, 0x9f, 0xde, 0x25, 0xbf, 0x0b, 0x4f, 0x18, 0xbf, 0xf9, 0x1a, 0x6c, 0x3f, 0x4e, 0xee, 0xff, 0xff, 0x04, 0x00, 0x00, 0x00, 0x94, 0x11, 0x00, 0x00, 0xef, 0x9f, 0xa9, 0xb3, 0xb1, 0x0a, 0x05, 0x28, 0xf3, 0xf3, 0x28, 0x28, 0x44, 0x2e, 0x5b, 0x18, 0x18, 0x0b, 0x2c, 0x21, 0xd8, 0x20, 0x3b, 0xff, 0x17, 0xde, 0xfa, 0xca, 0xda, 0x96, 0x91, 0xc8, 0x07, 0xba, 0xdc, 0x41, 0x10, 0xd1, 0x38, 0xfb, 0xe4, 0xfb, 0x12, 0x4a, 0x1e, 0x3c, 0x09, 0x1a, 0x3a, 0x0a, 0x42, 0xcc, 0xd2, 0xe9, 0x33, 0xf9, 0xe1, 0xd2, 0xf6, 0xf5, 0xff, 0x18, 0x1e, 0xea, 0x18, 0x38, 0x25, 0xe7, 0x2a, 0xe1, 0x12, 0x2c, 0x40, 0x5c, 0xf7, 0x27, 0x2a, 0x0b, 0x19, 0x58, 0xf1, 0xf9, 0xd8, 0x13, 0x00, 0xe7, 0x23, 0xfb, 0xc8, 0xfe, 0xa8, 0xfa, 0xf5, 0x03, 0xf4, 0xf2, 0x09, 0x1f, 0x42, 0xf5, 0x1f, 0x26, 0x3e, 0x30, 0x2a, 0x42, 0x06, 0x00, 0x44, 0x09, 0x06, 0x4a, 0x2c, 0xf4, 0xeb, 0x26, 0xfd, 0xf8, 0xe8, 0xfa, 0xd4, 0xe5, 0xfb, 0xbc, 0x24, 0x22, 0x25, 0xfb, 0x09, 0x44, 0x35, 0x31, 0x2d, 0x19, 0x13, 0x09, 0x16, 0x49, 0x15, 0x3a, 0xf1, 0x49, 0x3a, 0x0d, 0xed, 0x4b, 0xea, 0x02, 0xfa, 0x05, 0xce, 0xb8, 0x9f, 0xb7, 0xba, 0x1b, 0x34, 0x29, 0x1f, 0x49, 0x2c, 0x00, 0x36, 0x05, 0x0d, 0x16, 0xfb, 0x01, 0x01, 0x3a, 0x2e, 0xf4, 0x39, 0x1b, 0x29, 0xd8, 0xd8, 0x10, 0xc7, 0xa0, 0xc5, 0xba, 0xd3, 0xf5, 0xd5, 0xd7, 0x1e, 0x19, 0x04, 0xf6, 0x36, 0x42, 0x25, 0xf4, 0x06, 0x20, 0x02, 0x30, 0x69, 0x0a, 0x20, 0x56, 0x3c, 0x51, 0x2d, 0x32, 0xce, 0x25, 0x23, 0x0e, 0xe1, 0xb0, 0x05, 0xbe, 0xff, 0x2e, 0xfa, 0x61, 0x3f, 0x56, 0x66, 0x4f, 0x5f, 0x08, 0x3d, 0x1d, 0x53, 0x22, 0x32, 0x43, 0x5a, 0x0a, 0x59, 0xf3, 0x43, 0x13, 0xe7, 0xd6, 0xbc, 0x0c, 0x91, 0xcf, 0xc4, 0x19, 0xe0, 0x53, 0x45, 0x6c, 0x3c, 0x77, 0x75, 0x0a, 0x1d, 0x2c, 0x11, 0x3e, 0x4e, 0x6e, 0x58, 0x75, 0x30, 0x0c, 0x4b, 0x3e, 0x02, 0x29, 0x10, 0xeb, 0xf6, 0x0d, 0xe4, 0xb2, 0x16, 0x04, 0x21, 0x42, 0x06, 0xd7, 0x08, 0xcd, 0x2d, 0x46, 0x27, 0x49, 0x25, 0x6d, 0x41, 0xfa, 0xfd, 0xe0, 0x09, 0xab, 0xfa, 0x3b, 0xd2, 0x41, 0x19, 0x09, 0xcd, 0x35, 0xe2, 0xd9, 0x04, 0x2b, 0xcb, 0xf0, 0xd7, 0x39, 0x16, 0x19, 0x1e, 0x1d, 0x40, 0x50, 0x4b, 0xf5, 0x31, 0x28, 0xbe, 0xfa, 0x31, 0x1f, 0x0e, 0x0e, 0x3e, 0x05, 0xff, 0xe0, 0xe8, 0x3d, 0xff, 0xeb, 0xe2, 0xdc, 0x13, 0x16, 0x13, 0x45, 0x2b, 0x15, 0x0e, 0xdd, 0x44, 0x0e, 0x0d, 0x0f, 0x66, 0x08, 0xea, 0xff, 0x16, 0xe8, 0xd8, 0x35, 0x27, 0x67, 0x56, 0xb7, 0xe2, 0xfb, 0x30, 0xdd, 0x9d, 0x06, 0x0f, 0x34, 0x09, 0xfa, 0xc7, 0xfe, 0x61, 0x11, 0x28, 0x2d, 0x42, 0x52, 0x12, 0xfe, 0x58, 0x7f, 0xfb, 0xd9, 0xfc, 0xeb, 0x16, 0x69, 0xf3, 0xd6, 0xfb, 0xee, 0x17, 0xb1, 0xd9, 0xbf, 0xd1, 0x07, 0xdd, 0xef, 0x16, 0x11, 0x1d, 0xf2, 0xe5, 0x24, 0x1f, 0xfd, 0x1f, 0xf9, 0x49, 0x31, 0x0f, 0x08, 0x28, 0x15, 0x17, 0x0d, 0x04, 0xd7, 0xd5, 0xd1, 0xe4, 0x02, 0xf2, 0x1a, 0xd4, 0xf8, 0xc3, 0xcf, 0x18, 0x08, 0x46, 0xe7, 0xe0, 0xd4, 0xd8, 0x38, 0x2c, 0x12, 0xf9, 0xfb, 0x1d, 0x59, 0x12, 0xf6, 0x49, 0x21, 0x6a, 0x3d, 0x49, 0x2b, 0xe6, 0xc6, 0xec, 0xb3, 0xc2, 0x0b, 0xcd, 0x02, 0xe2, 0xe0, 0xe2, 0xda, 0xc4, 0xdc, 0xf5, 0xf3, 0xc1, 0x09, 0x0a, 0xcc, 0x2e, 0x41, 0x0a, 0xde, 0xdf, 0x0c, 0x45, 0x2f, 0x3c, 0x19, 0x38, 0x06, 0x06, 0xbb, 0xc3, 0xed, 0xe7, 0x20, 0xcf, 0xef, 0x06, 0x01, 0x28, 0xf4, 0xe6, 0xde, 0x03, 0xc4, 0xc0, 0xdf, 0xed, 0xe2, 0xfa, 0x21, 0x0e, 0x21, 0x4f, 0xf6, 0x63, 0x15, 0x24, 0xf8, 0xc3, 0x1d, 0xd7, 0x1c, 0x14, 0xd0, 0xf9, 0xd0, 0xe7, 0xcc, 0xb3, 0x1c, 0xc5, 0xd5, 0xdb, 0x03, 0xef, 0x21, 0x2a, 0xe8, 0xd3, 0xd3, 0xf5, 0x06, 0x2c, 0x54, 0x3d, 0x01, 0x2a, 0x38, 0xee, 0xd2, 0xb4, 0xc8, 0x0a, 0x27, 0x3e, 0xcc, 0xe5, 0xcd, 0xb0, 0xd0, 0xb0, 0xf5, 0x24, 0x1d, 0xbe, 0x31, 0xb9, 0x0a, 0x38, 0xfe, 0xc3, 0xd5, 0x30, 0x3c, 0x35, 0x33, 0xf0, 0xd4, 0xe6, 0x0a, 0x16, 0xe1, 0x1d, 0xff, 0xe2, 0x17, 0xd3, 0x02, 0xc3, 0xc0, 0xec, 0xca, 0x0f, 0x0f, 0x23, 0xe5, 0xe2, 0x26, 0xc8, 0xea, 0xe3, 0x06, 0xe9, 0x2f, 0x71, 0x63, 0x15, 0x47, 0xd5, 0xc4, 0x11, 0xc4, 0xef, 0xf8, 0x27, 0xc4, 0x0d, 0x01, 0xcb, 0x10, 0xa4, 0xc3, 0x01, 0xe8, 0x12, 0xed, 0x2a, 0x3a, 0xd9, 0xc1, 0x26, 0x03, 0x15, 0x1d, 0x2d, 0x6d, 0x40, 0x1f, 0xeb, 0xca, 0xab, 0xf3, 0xec, 0xca, 0xe7, 0x26, 0x3d, 0xf7, 0x00, 0x0c, 0xc6, 0xbf, 0x0b, 0x03, 0x2a, 0x29, 0xef, 0xf7, 0x38, 0x20, 0xd1, 0xe2, 0x2e, 0x59, 0x51, 0x1e, 0x10, 0x1c, 0xdb, 0x25, 0xe8, 0x26, 0xbc, 0xb4, 0xe4, 0xca, 0xe8, 0xbd, 0xeb, 0x03, 0x33, 0x50, 0x1a, 0xbe, 0x0a, 0xf9, 0xf6, 0xd7, 0x39, 0x15, 0x09, 0x30, 0x65, 0x44, 0x18, 0x27, 0xf2, 0x24, 0x2e, 0xe1, 0x3a, 0xf7, 0x0d, 0xd2, 0xe2, 0x10, 0xc6, 0xe7, 0xfe, 0x22, 0xb8, 0xaf, 0xbb, 0xa8, 0xaf, 0xe3, 0xc4, 0xb1, 0x1f, 0xe4, 0x22, 0x5b, 0x64, 0x5a, 0x6f, 0x11, 0xe8, 0x04, 0xe5, 0x1b, 0x2e, 0xce, 0xe5, 0xef, 0xba, 0x27, 0xcc, 0xde, 0xc8, 0xc9, 0xb1, 0xef, 0x95, 0x94, 0xa5, 0xc2, 0x00, 0xa6, 0x00, 0xf4, 0x21, 0x1d, 0x0e, 0x43, 0x64, 0x52, 0x36, 0x59, 0x29, 0xf6, 0x12, 0xe5, 0x33, 0x47, 0x40, 0xca, 0xc8, 0xc8, 0x9d, 0xbb, 0xa8, 0xc5, 0xe3, 0xac, 0xe5, 0xa7, 0xa5, 0xfe, 0xe7, 0x4d, 0x70, 0x60, 0x3d, 0x77, 0x3d, 0x62, 0x42, 0x47, 0xec, 0x39, 0x19, 0xe2, 0xb6, 0xee, 0x23, 0x07, 0x14, 0xa7, 0xe7, 0x9d, 0xc3, 0xb7, 0xc6, 0xbe, 0x9c, 0xe2, 0xf2, 0xec, 0x54, 0x0b, 0x67, 0x2b, 0x38, 0x30, 0x6d, 0x49, 0xe7, 0x51, 0x29, 0x2e, 0xf2, 0xf4, 0xed, 0x0c, 0x03, 0xcf, 0xc8, 0xc1, 0x1b, 0xb4, 0xdf, 0xe7, 0xc1, 0xea, 0xf4, 0xb9, 0x29, 0x1f, 0x4d, 0x2d, 0x6f, 0x71, 0x37, 0x6d, 0x24, 0x16, 0x45, 0x13, 0x26, 0x13, 0x4a, 0xeb, 0xee, 0xc9, 0x1f, 0x19, 0xd3, 0x0f, 0xd7, 0xcb, 0xbe, 0xef, 0xfa, 0x3a, 0xe5, 0x1d, 0x56, 0x01, 0x02, 0x37, 0x1c, 0x77, 0x77, 0x32, 0x5c, 0x5d, 0x0b, 0x45, 0x41, 0xe7, 0x13, 0x00, 0xba, 0xa8, 0xfa, 0x44, 0xdf, 0x06, 0x40, 0xe0, 0x1f, 0x24, 0x41, 0xfd, 0xff, 0x40, 0x66, 0xfb, 0x0c, 0x30, 0x3c, 0x5e, 0x13, 0x1d, 0x3e, 0x46, 0xef, 0x18, 0x2e, 0x33, 0xf5, 0x1d, 0x1f, 0xce, 0xd1, 0xc7, 0xde, 0xc4, 0xf3, 0xc7, 0x15, 0xe3, 0x2a, 0x28, 0xe6, 0xec, 0x0a, 0x31, 0x07, 0xf7, 0x19, 0x3c, 0xca, 0xe3, 0xf0, 0xff, 0xf2, 0x0a, 0xd8, 0x1d, 0x39, 0x29, 0xf8, 0x22, 0x16, 0x25, 0xb6, 0xf2, 0xc2, 0xbd, 0xca, 0xe7, 0xd2, 0xc9, 0xe4, 0xe6, 0xc3, 0xe8, 0x11, 0xde, 0xed, 0xfc, 0xda, 0xe7, 0xea, 0x32, 0x22, 0x25, 0x09, 0xf4, 0x0c, 0x07, 0xee, 0xfb, 0xd4, 0xd3, 0xcd, 0x23, 0xe6, 0xf6, 0xfa, 0xd9, 0x2c, 0xdd, 0x20, 0xe0, 0x1e, 0x12, 0xc7, 0x24, 0x1a, 0x06, 0x28, 0x1c, 0x2b, 0x30, 0xe1, 0xcb, 0xde, 0x29, 0xf1, 0x06, 0x0e, 0x28, 0x0b, 0xdc, 0xf4, 0x0e, 0x1b, 0xe8, 0x2d, 0x29, 0x1d, 0xc7, 0xbf, 0xe2, 0xee, 0x17, 0xd8, 0x0e, 0xf1, 0x1e, 0x1d, 0x00, 0xda, 0x20, 0x13, 0x18, 0x35, 0x1f, 0xd8, 0x02, 0xe6, 0xf4, 0x1b, 0xc1, 0xe1, 0x26, 0xf5, 0xc4, 0xd6, 0xef, 0xe4, 0xbf, 0xf4, 0xc4, 0xd4, 0x2e, 0xfe, 0x1f, 0xf9, 0xc8, 0x33, 0x20, 0xd3, 0xda, 0x01, 0xe1, 0x09, 0xc0, 0x25, 0x29, 0x1a, 0x19, 0x13, 0xbe, 0xe3, 0xbb, 0xf8, 0x2c, 0x1d, 0xee, 0xcf, 0x1b, 0xdc, 0x2b, 0xe2, 0x25, 0xf1, 0xfe, 0xd7, 0xd3, 0xd5, 0xf6, 0xfc, 0x2f, 0x14, 0xfb, 0x2f, 0x17, 0xcd, 0xf3, 0x25, 0xcc, 0xdc, 0x23, 0xe6, 0x03, 0xe8, 0x1a, 0xdb, 0x2b, 0x15, 0x0d, 0x2b, 0xb6, 0xf6, 0xf1, 0xde, 0x21, 0xe3, 0xf2, 0x19, 0x35, 0xf4, 0x01, 0xdc, 0x02, 0xed, 0xcc, 0x1b, 0xf3, 0xc7, 0xe0, 0x0b, 0xc6, 0xf4, 0xb7, 0xe3, 0xf3, 0x0f, 0x0a, 0xe8, 0x0e, 0x28, 0xc4, 0xcb, 0xd4, 0x24, 0x0e, 0x22, 0x11, 0x2c, 0xc1, 0xf9, 0x16, 0x34, 0x28, 0x1d, 0xe0, 0xdb, 0xd1, 0xfe, 0x1c, 0x22, 0x16, 0xfa, 0xee, 0xcb, 0x25, 0xe0, 0xdc, 0xec, 0xc3, 0x2e, 0xd7, 0x32, 0xe5, 0x1d, 0xf3, 0xf1, 0x10, 0x23, 0x36, 0x31, 0x0f, 0x13, 0xce, 0xf4, 0x2c, 0xfb, 0xe3, 0x0c, 0xed, 0x08, 0xe8, 0xe4, 0xfb, 0x14, 0x11, 0x24, 0xf3, 0x08, 0xf2, 0xe9, 0x38, 0xf9, 0x0f, 0xe8, 0x1d, 0xd0, 0xf8, 0x06, 0xed, 0xde, 0xf5, 0xc7, 0x1d, 0xcd, 0xd4, 0x26, 0xc8, 0xe9, 0x2b, 0xc3, 0x2b, 0xf3, 0xe3, 0x1e, 0x22, 0xb3, 0xf8, 0x05, 0xfb, 0x02, 0x12, 0x0b, 0xff, 0x08, 0xdd, 0x23, 0x27, 0xfb, 0x13, 0x0b, 0xd5, 0xd2, 0xf5, 0x1a, 0x2c, 0xd6, 0x29, 0xbc, 0x15, 0x25, 0x06, 0x07, 0x16, 0x2d, 0xec, 0xb7, 0xcd, 0xbb, 0x04, 0x07, 0x0d, 0xeb, 0xcb, 0xf1, 0xe9, 0xef, 0x14, 0x22, 0xf6, 0xdf, 0x18, 0x13, 0xd4, 0x0d, 0x0a, 0x29, 0xf7, 0x29, 0xfd, 0xd0, 0x0c, 0xf4, 0xf8, 0xf8, 0xc2, 0xbc, 0xfe, 0x05, 0x1e, 0xd8, 0xe9, 0x26, 0xdb, 0xd1, 0x22, 0xf9, 0xd1, 0xc3, 0xc1, 0x0e, 0xfe, 0xec, 0x23, 0x31, 0x0a, 0xfc, 0xe0, 0x13, 0xf4, 0xcc, 0xdc, 0x1f, 0x1a, 0xcb, 0x2a, 0x20, 0x1b, 0x1f, 0xdf, 0xe3, 0xbb, 0x03, 0xcf, 0x01, 0x18, 0xe4, 0xd9, 0x34, 0x13, 0xd9, 0xea, 0xed, 0x28, 0xca, 0x1c, 0x17, 0xf8, 0xf3, 0x21, 0x1c, 0x06, 0xef, 0x00, 0xd8, 0xbc, 0x11, 0xd6, 0xfb, 0xdc, 0xf3, 0xec, 0x0f, 0xc2, 0xfb, 0x25, 0xf8, 0xd8, 0x0b, 0x0c, 0x1b, 0x15, 0x06, 0xf5, 0x22, 0xbb, 0xbd, 0xf5, 0x10, 0x2d, 0x17, 0xe0, 0xf5, 0x19, 0x2b, 0xc4, 0x14, 0xee, 0x21, 0xde, 0xd0, 0xf5, 0x2a, 0x18, 0x08, 0xf1, 0x48, 0x1b, 0x1d, 0x00, 0xcb, 0x17, 0xc4, 0x0f, 0x15, 0xd4, 0x0f, 0xed, 0xce, 0x34, 0xed, 0x04, 0x06, 0x12, 0xff, 0x0a, 0x09, 0x24, 0xcd, 0xeb, 0xc6, 0xf5, 0x12, 0xe7, 0xdb, 0xf0, 0xf9, 0xd3, 0xbb, 0x0a, 0xce, 0xe2, 0x25, 0xd8, 0xca, 0xff, 0xc9, 0xf6, 0xef, 0x00, 0x2a, 0xfb, 0xcb, 0x2e, 0xf0, 0x01, 0xfe, 0x27, 0xed, 0xdd, 0xd1, 0xff, 0x1d, 0x0f, 0xbc, 0xe5, 0x0f, 0xfd, 0x0b, 0x16, 0xc0, 0xd0, 0xef, 0x1b, 0xd0, 0xb7, 0x28, 0xe4, 0x2f, 0xfb, 0x0a, 0xf7, 0x15, 0x13, 0x04, 0xe4, 0xee, 0xe5, 0x34, 0xf9, 0xf4, 0xe0, 0x0c, 0xf8, 0xcb, 0xcb, 0x37, 0x1f, 0x17, 0xf6, 0x06, 0xe6, 0xff, 0x2d, 0xd1, 0xcd, 0x2a, 0xfb, 0x2b, 0x1b, 0x12, 0x2b, 0xca, 0x2a, 0xf3, 0xeb, 0xf6, 0xcd, 0xfc, 0xff, 0xe0, 0xde, 0xf7, 0xe2, 0x00, 0x2f, 0xce, 0x27, 0xdd, 0x00, 0xe5, 0xba, 0x2e, 0xea, 0xef, 0x1b, 0x13, 0x14, 0x03, 0x30, 0x2e, 0xbb, 0xc3, 0x08, 0x1a, 0x17, 0x0d, 0x11, 0xd8, 0x1c, 0xbf, 0x24, 0xca, 0x07, 0x16, 0xd9, 0xf6, 0xc9, 0x0d, 0xf2, 0xf7, 0xba, 0xcb, 0xdf, 0x16, 0x2c, 0xed, 0xcd, 0x32, 0x17, 0x11, 0xcf, 0x11, 0xe4, 0x0b, 0x2c, 0x2f, 0x14, 0x0a, 0x22, 0x08, 0xd3, 0xd5, 0x1e, 0x04, 0xe1, 0xd5, 0xd6, 0xc3, 0xea, 0xee, 0x14, 0xe0, 0x2a, 0x07, 0xcb, 0x0c, 0xbc, 0xe3, 0x04, 0x30, 0x3f, 0xf0, 0xeb, 0x1d, 0x36, 0x2a, 0xf6, 0x12, 0x1a, 0xec, 0xc3, 0xcd, 0x38, 0x2e, 0x0c, 0xcf, 0x2c, 0x26, 0x0d, 0x00, 0xf7, 0x2b, 0xf6, 0xf1, 0xc1, 0xef, 0xcb, 0x14, 0xda, 0x28, 0x09, 0xea, 0xdc, 0xf2, 0x14, 0x27, 0xd2, 0x01, 0xe0, 0x29, 0x0b, 0x21, 0xd7, 0xe8, 0x30, 0x19, 0x07, 0xf2, 0xed, 0xcf, 0x2d, 0xf5, 0xeb, 0x0d, 0xd3, 0xc3, 0x24, 0xf0, 0xf6, 0x25, 0x31, 0x0d, 0x2e, 0x10, 0xf1, 0x31, 0x16, 0x30, 0xea, 0x1c, 0x1f, 0xd8, 0x46, 0x03, 0xdf, 0x34, 0x27, 0xf5, 0x27, 0xef, 0xc4, 0xd3, 0xd6, 0x12, 0xca, 0xec, 0x1e, 0x25, 0x01, 0x2d, 0xe4, 0x12, 0x3a, 0xd9, 0xe2, 0xd7, 0x34, 0xcd, 0xe3, 0xef, 0xdb, 0xdd, 0xdd, 0xdc, 0xe3, 0x05, 0xdf, 0xdb, 0xf3, 0xfb, 0x10, 0x23, 0xd2, 0x09, 0x12, 0x2a, 0xbd, 0x0f, 0xd3, 0xe1, 0x0b, 0x2a, 0x06, 0x3a, 0xfc, 0x31, 0xce, 0xef, 0xf5, 0xda, 0xd0, 0xda, 0x05, 0xc1, 0xba, 0xfb, 0x11, 0xdc, 0xd1, 0x2d, 0x02, 0x28, 0x29, 0xc3, 0xfe, 0xfe, 0x0d, 0x09, 0xc7, 0xdf, 0xee, 0xff, 0xc0, 0xfc, 0x07, 0xc9, 0xc5, 0x2c, 0x04, 0xfd, 0x2a, 0x0a, 0x2f, 0x2c, 0x13, 0xdd, 0xf6, 0xce, 0xf5, 0x22, 0x2b, 0xfa, 0x2d, 0x1d, 0x0d, 0xd1, 0xba, 0x24, 0x08, 0xd6, 0xdf, 0xd3, 0xe3, 0xbe, 0x2a, 0xd4, 0xee, 0x2b, 0x0e, 0xf1, 0x0f, 0x08, 0x30, 0x11, 0x10, 0xbb, 0x1d, 0x2a, 0xd6, 0x2a, 0xbd, 0xcc, 0xf0, 0xed, 0x2b, 0xe0, 0x15, 0xc0, 0x0d, 0x06, 0xd9, 0xf2, 0x21, 0x2d, 0xf3, 0xf6, 0xf0, 0xff, 0xfb, 0xe0, 0x04, 0x28, 0xcf, 0xc7, 0x2b, 0x10, 0xf9, 0x03, 0x1b, 0xc1, 0xf6, 0xeb, 0xf3, 0x31, 0x33, 0x39, 0x2c, 0x14, 0xca, 0xe5, 0x18, 0x2a, 0xd6, 0xc5, 0x2c, 0xfe, 0xce, 0xd2, 0x0e, 0xd1, 0xd3, 0xf2, 0xf5, 0x17, 0x01, 0xe4, 0x21, 0x2c, 0x14, 0xcf, 0xcb, 0xf8, 0xed, 0xf6, 0x14, 0x0e, 0xde, 0xdd, 0x0d, 0x31, 0x26, 0x1b, 0xf7, 0x08, 0x11, 0x1b, 0x31, 0xf9, 0x22, 0xef, 0x19, 0xfa, 0x1c, 0xc0, 0xd7, 0xf5, 0xdc, 0x26, 0x11, 0x18, 0x2d, 0x04, 0xe0, 0xc5, 0x2a, 0xe3, 0x19, 0x1e, 0xe3, 0xea, 0xf2, 0xc6, 0xc5, 0xe5, 0x01, 0xbf, 0x27, 0x0b, 0xdb, 0xca, 0xd1, 0xc6, 0xee, 0xf4, 0x19, 0x08, 0x01, 0xfa, 0xe7, 0xd7, 0x05, 0xde, 0xd3, 0x30, 0xcd, 0xdf, 0x27, 0x10, 0x07, 0xef, 0xf6, 0xf9, 0x07, 0xd5, 0x1b, 0xd9, 0xc7, 0xff, 0xe7, 0xdd, 0xcd, 0xeb, 0x33, 0x2b, 0xd0, 0xff, 0xd3, 0xc5, 0x14, 0xf6, 0xff, 0xd6, 0x0b, 0xd7, 0xff, 0x34, 0x30, 0xfa, 0x21, 0xc6, 0x1a, 0xd2, 0xe8, 0x03, 0xd5, 0xfe, 0x0d, 0x0f, 0x04, 0xc9, 0x2e, 0xdf, 0x14, 0xde, 0x0c, 0x0c, 0x2c, 0xf6, 0xda, 0x1c, 0x25, 0xfd, 0xef, 0xe2, 0x21, 0xcc, 0x0a, 0x17, 0xd9, 0x25, 0xf0, 0xe2, 0xd9, 0xd7, 0x28, 0x16, 0xd7, 0xef, 0x08, 0xf2, 0xdb, 0x29, 0xbe, 0xc5, 0xe0, 0xfa, 0x16, 0x13, 0xee, 0xf4, 0x2d, 0xd6, 0xd3, 0xcf, 0x29, 0xce, 0xcc, 0xbc, 0xc9, 0xc5, 0x05, 0xf5, 0xdd, 0x0e, 0x00, 0x26, 0x04, 0x02, 0x0b, 0xe0, 0xdc, 0xef, 0xfe, 0xeb, 0xf9, 0x1f, 0xf4, 0xc4, 0x0b, 0xd3, 0x2e, 0x34, 0xd1, 0x08, 0x2e, 0xf4, 0x22, 0x1c, 0x0d, 0xda, 0x14, 0xee, 0xd9, 0x22, 0xfe, 0xca, 0x10, 0x0e, 0x10, 0xf5, 0xe2, 0xf8, 0xd3, 0x1f, 0xc1, 0xce, 0xdf, 0x0d, 0x27, 0x08, 0xff, 0xfb, 0x12, 0xe1, 0xfa, 0xca, 0xcc, 0x25, 0xd0, 0xd2, 0xce, 0xd0, 0xec, 0xc3, 0x0a, 0xfb, 0x1f, 0xf1, 0xce, 0xfa, 0x13, 0xff, 0x0a, 0xcc, 0xe7, 0x0f, 0x0a, 0xf8, 0x31, 0x29, 0xd3, 0x02, 0x1f, 0x24, 0x18, 0x00, 0x16, 0xd6, 0xc4, 0xe5, 0x0c, 0x16, 0x18, 0xff, 0x26, 0x28, 0xe1, 0xeb, 0x17, 0xc5, 0x1d, 0xd1, 0x03, 0xed, 0xc6, 0x2a, 0x17, 0x33, 0xe6, 0x28, 0x14, 0xfd, 0xe7, 0xcb, 0x16, 0x1e, 0xdf, 0xd5, 0x15, 0xcf, 0x28, 0x25, 0xea, 0xef, 0xf6, 0xdc, 0x0d, 0x22, 0xdb, 0x13, 0x04, 0xff, 0x23, 0xf9, 0x31, 0x07, 0x1e, 0x0c, 0x07, 0xf2, 0xfe, 0x08, 0xc5, 0x35, 0xc7, 0x10, 0xf8, 0x2f, 0xf3, 0x13, 0xf2, 0x15, 0xed, 0x29, 0xca, 0x0a, 0xd4, 0xd6, 0x09, 0xeb, 0xf1, 0x09, 0xec, 0xdf, 0xf3, 0xbf, 0x2c, 0xe0, 0xdf, 0x0e, 0xfb, 0xe9, 0x1f, 0x27, 0xd6, 0x0a, 0xd7, 0xe4, 0xee, 0x10, 0xef, 0xde, 0x06, 0xfd, 0xbf, 0xcd, 0x1f, 0x06, 0xc4, 0xd8, 0xf5, 0x15, 0x36, 0x11, 0xf0, 0xce, 0xde, 0xbe, 0x20, 0xc9, 0x33, 0x2e, 0x2b, 0x21, 0x10, 0xd8, 0xe3, 0x0a, 0x2f, 0xfb, 0xd5, 0x23, 0xfa, 0xeb, 0xed, 0xff, 0xdd, 0x0f, 0x15, 0x24, 0xc3, 0x2c, 0x0d, 0xe0, 0xf3, 0xf8, 0xc1, 0xfd, 0xed, 0xfa, 0x11, 0x00, 0xe5, 0xe9, 0x2a, 0xeb, 0xf4, 0xfd, 0xc6, 0xef, 0xf0, 0x24, 0x30, 0xd6, 0xef, 0xf7, 0xbe, 0xce, 0x2d, 0x18, 0xd1, 0x18, 0xfd, 0x06, 0x1a, 0x2f, 0x27, 0xeb, 0x26, 0x34, 0x1b, 0xf6, 0xc6, 0x07, 0xe7, 0xee, 0x00, 0xea, 0xda, 0xbe, 0x07, 0xcb, 0xe5, 0x25, 0x0e, 0xbe, 0x2b, 0x21, 0xce, 0x0f, 0xd1, 0x05, 0xf0, 0xca, 0xf8, 0x15, 0x32, 0xd9, 0xf1, 0x1d, 0xd8, 0xce, 0xbd, 0x17, 0xf2, 0xcc, 0x04, 0xe9, 0x0e, 0x06, 0x25, 0x30, 0x1a, 0xd9, 0xd2, 0xc9, 0x25, 0x2e, 0x1c, 0x26, 0xc3, 0xc5, 0xd0, 0x0a, 0x16, 0xd9, 0xf2, 0x18, 0xd2, 0xd9, 0xdf, 0xf6, 0x2c, 0x12, 0x13, 0x2b, 0xfe, 0x2d, 0x2b, 0x2a, 0xfa, 0x25, 0xe9, 0x35, 0xfb, 0xda, 0xf7, 0x30, 0xc9, 0x1b, 0xff, 0x34, 0x39, 0xe5, 0x3c, 0x00, 0x2f, 0x1e, 0xdb, 0xe5, 0xce, 0x2b, 0xd0, 0x14, 0x31, 0xff, 0x31, 0xd8, 0x04, 0x09, 0x32, 0xe4, 0x24, 0x14, 0xc8, 0x38, 0x01, 0xd4, 0xf4, 0x29, 0x1e, 0x20, 0xfc, 0x1b, 0x00, 0xe1, 0x06, 0x0b, 0x29, 0xe9, 0xff, 0x04, 0x29, 0xde, 0xf0, 0xd5, 0x27, 0x38, 0x48, 0x09, 0x06, 0x09, 0x0a, 0xf2, 0x22, 0x1a, 0xed, 0x14, 0x01, 0xef, 0x2c, 0x04, 0x31, 0x38, 0x34, 0xd7, 0x16, 0xc9, 0x0f, 0xe3, 0xc7, 0xec, 0x07, 0xcf, 0xd8, 0xea, 0xc6, 0x2b, 0xf2, 0xde, 0xdc, 0x31, 0xdc, 0xec, 0xc6, 0xec, 0xdb, 0xd9, 0xeb, 0xd7, 0xd1, 0x34, 0x00, 0x19, 0x17, 0xea, 0x0f, 0xf1, 0xce, 0x2a, 0xf4, 0xcb, 0x1d, 0x26, 0x15, 0xe1, 0xe2, 0xfc, 0x17, 0x35, 0xe1, 0xde, 0x12, 0xff, 0x04, 0x16, 0x20, 0x01, 0x25, 0x21, 0xef, 0xf7, 0xf4, 0xf3, 0xfe, 0xe1, 0x1f, 0xc2, 0xea, 0xd8, 0xd5, 0xfb, 0x2a, 0xee, 0x2b, 0x05, 0xf1, 0x1a, 0x11, 0xfa, 0xeb, 0x04, 0x36, 0xcc, 0xd1, 0xfa, 0xce, 0xeb, 0xd7, 0x3a, 0x3b, 0xea, 0x2d, 0xcb, 0xf3, 0x02, 0x48, 0xfe, 0xc6, 0xd8, 0xee, 0x2f, 0x19, 0xed, 0xf8, 0xd4, 0x1a, 0x0a, 0x2e, 0x02, 0x47, 0x1b, 0xfc, 0x06, 0xeb, 0xcb, 0xeb, 0xfc, 0x3a, 0x10, 0xdf, 0xf1, 0xe9, 0xe2, 0xf7, 0x0a, 0x05, 0x25, 0x06, 0xc1, 0xc6, 0xef, 0xef, 0x08, 0xce, 0xcc, 0xda, 0x0f, 0xd1, 0xe0, 0xd9, 0x34, 0x01, 0x3e, 0x0b, 0xd4, 0x0d, 0xdb, 0x16, 0xdb, 0x08, 0x49, 0x07, 0x13, 0xcf, 0x41, 0x0d, 0xfe, 0xc6, 0xf4, 0x27, 0x03, 0xf8, 0xf3, 0xd3, 0xdc, 0x12, 0xff, 0xef, 0x2f, 0x03, 0x06, 0x3a, 0x1b, 0xea, 0xfc, 0xc9, 0xd1, 0x17, 0x1b, 0x37, 0xf7, 0xd0, 0xd3, 0x24, 0x28, 0xed, 0xc2, 0xf1, 0xe0, 0xf3, 0x1e, 0xcd, 0xbe, 0x1a, 0x34, 0x06, 0x25, 0x1b, 0xf1, 0xf8, 0x27, 0x40, 0x30, 0xd9, 0xfa, 0xfe, 0xdc, 0xeb, 0x3a, 0xd2, 0x37, 0x45, 0xe1, 0xff, 0xd7, 0x2f, 0xd4, 0xfc, 0xf1, 0xfe, 0xeb, 0x22, 0x23, 0xfc, 0x29, 0x1f, 0x17, 0x2a, 0xde, 0x25, 0x2e, 0x1c, 0xe7, 0xf4, 0xeb, 0x14, 0x19, 0x31, 0xfc, 0xe1, 0x35, 0x3e, 0x17, 0x21, 0x2d, 0xef, 0x1c, 0xcd, 0x00, 0xec, 0xff, 0xff, 0x2e, 0xbe, 0x0d, 0x02, 0x0d, 0x18, 0x04, 0xc6, 0x0e, 0x10, 0xfa, 0xf2, 0x29, 0x06, 0x0d, 0xed, 0x01, 0x3b, 0xfe, 0xda, 0xcd, 0xe6, 0xf3, 0x2a, 0x11, 0x25, 0x2f, 0x10, 0xd7, 0xf2, 0xca, 0xc4, 0x0c, 0xd6, 0xc4, 0x08, 0x20, 0x18, 0xef, 0x15, 0xd6, 0xe4, 0xfe, 0x34, 0xef, 0x45, 0xe0, 0x00, 0x11, 0x3a, 0x1f, 0x06, 0xb8, 0xc7, 0xdb, 0x09, 0xe4, 0xcb, 0x18, 0xdb, 0x12, 0xdf, 0xd7, 0x12, 0x20, 0xe9, 0x0b, 0x27, 0xd4, 0xff, 0x0f, 0xdc, 0x26, 0x03, 0x0a, 0xcb, 0xe3, 0x06, 0xbd, 0x1a, 0xc6, 0xd1, 0xe4, 0xbb, 0x0a, 0x41, 0xcd, 0x06, 0x34, 0x09, 0xca, 0xc3, 0xed, 0xc1, 0x18, 0xfd, 0x12, 0xc5, 0xf8, 0xfa, 0x06, 0x0f, 0xfd, 0x29, 0xf9, 0x21, 0x27, 0x28, 0xb9, 0xdf, 0xe1, 0xf2, 0x1e, 0xcd, 0xc2, 0xf0, 0x46, 0xd8, 0x1b, 0xf2, 0x0f, 0xe8, 0x20, 0xd4, 0xe5, 0xc5, 0x12, 0xf0, 0xe1, 0x0f, 0x1d, 0xfd, 0xfd, 0x2b, 0x2b, 0x11, 0xee, 0xc1, 0xcc, 0xef, 0xc8, 0x03, 0xc2, 0x00, 0xd8, 0xe4, 0x27, 0x0c, 0xe5, 0x1a, 0xee, 0xca, 0x26, 0xcc, 0xca, 0xe8, 0x09, 0x1b, 0x2b, 0xc1, 0x1d, 0x0b, 0x30, 0xd2, 0xcd, 0xf1, 0xfa, 0xdf, 0x20, 0xf2, 0xe7, 0x1f, 0x06, 0x07, 0x12, 0xe0, 0x44, 0x2c, 0x06, 0xd0, 0x1f, 0x02, 0x12, 0xee, 0x05, 0x17, 0xee, 0x09, 0xfc, 0x09, 0x2d, 0xea, 0x04, 0x2e, 0xbd, 0xbd, 0xdd, 0x22, 0xdb, 0x07, 0xfc, 0xca, 0x2e, 0xe6, 0x03, 0xfb, 0x28, 0xdb, 0x49, 0xe4, 0xd4, 0xe2, 0xc7, 0xe0, 0x18, 0xcf, 0x1f, 0x12, 0xe5, 0xc7, 0xcb, 0x08, 0x16, 0x30, 0xe6, 0xe4, 0x20, 0x2c, 0xea, 0x17, 0x2c, 0xbf, 0xc5, 0xce, 0x01, 0x03, 0xfa, 0xe3, 0xd1, 0x11, 0x05, 0x0b, 0xfe, 0xc7, 0x1a, 0xba, 0xea, 0x2f, 0x33, 0xc0, 0x2c, 0xcc, 0x02, 0xf3, 0xc8, 0x06, 0x10, 0x10, 0xc9, 0xd9, 0xf0, 0x12, 0x0c, 0xcd, 0xfb, 0x18, 0xf3, 0xce, 0x3e, 0xf0, 0x13, 0x09, 0xd6, 0xf9, 0xc8, 0xc6, 0xe4, 0xfd, 0x28, 0x09, 0xc3, 0x05, 0x1a, 0xf1, 0xb8, 0xc4, 0xe1, 0x0b, 0xec, 0x0f, 0x17, 0x28, 0x15, 0xe4, 0xc3, 0xcd, 0xc5, 0x24, 0x2a, 0xeb, 0xbf, 0xf4, 0xe5, 0x00, 0xd9, 0xfe, 0xd9, 0x2c, 0xfe, 0x21, 0xcf, 0xbc, 0xcb, 0x04, 0x0c, 0xc9, 0xf5, 0xfd, 0x34, 0x2d, 0xfe, 0xdb, 0xbf, 0xcb, 0xd5, 0x09, 0xbe, 0x34, 0x01, 0xec, 0x2f, 0x20, 0x13, 0xf5, 0x10, 0x0e, 0xfc, 0x24, 0xc5, 0xef, 0xf1, 0x14, 0xbc, 0x23, 0xdf, 0xd9, 0x0a, 0xe3, 0x20, 0x37, 0xca, 0xd7, 0xfa, 0xd4, 0x01, 0x0e, 0x02, 0x2d, 0x16, 0xfb, 0xd6, 0x16, 0xca, 0x1b, 0xc7, 0xfa, 0x16, 0x2f, 0x10, 0x08, 0xfe, 0xd5, 0xf8, 0x08, 0xd0, 0xe9, 0x32, 0x35, 0x27, 0xf2, 0xea, 0x10, 0xc9, 0x00, 0xf7, 0xde, 0xe4, 0xf8, 0xd9, 0xeb, 0xc8, 0xb9, 0x0f, 0xf6, 0x21, 0x0b, 0xec, 0xf2, 0xfb, 0xbd, 0x1a, 0x26, 0x26, 0xcb, 0xe2, 0xdb, 0x20, 0xe8, 0x28, 0xe0, 0x14, 0x23, 0x0e, 0xff, 0x10, 0x2e, 0x37, 0xee, 0xe3, 0x2f, 0x25, 0xce, 0xc0, 0x0a, 0x22, 0xe4, 0x12, 0x05, 0xef, 0xb9, 0xef, 0x08, 0x0b, 0x18, 0x00, 0x28, 0xf2, 0xe7, 0x30, 0x29, 0xd9, 0x00, 0x05, 0xf3, 0x18, 0xdb, 0x18, 0xfd, 0x26, 0xd3, 0xc9, 0x22, 0xe6, 0xf7, 0x36, 0xfe, 0xdb, 0xd4, 0xf8, 0xdf, 0xeb, 0xde, 0x18, 0xf0, 0xc7, 0xd9, 0xbd, 0xe2, 0x06, 0xd6, 0xe2, 0xd0, 0xda, 0xc5, 0x07, 0xd2, 0xfe, 0xf8, 0xcd, 0xf1, 0xcc, 0xfe, 0xc4, 0x28, 0xfb, 0xc8, 0xc9, 0xf2, 0x33, 0x3f, 0x1b, 0xea, 0x24, 0x19, 0x40, 0x25, 0x1e, 0x23, 0x40, 0x19, 0xdb, 0xdd, 0xc5, 0xc9, 0x22, 0xc7, 0xf8, 0x2b, 0x2c, 0xe7, 0x34, 0x18, 0x10, 0xfa, 0x2c, 0x03, 0xde, 0x3c, 0x25, 0xdc, 0xe9, 0xe5, 0x19, 0x36, 0xfd, 0x0a, 0x4c, 0xf1, 0x1a, 0xeb, 0xe6, 0xe1, 0xf4, 0xea, 0xe8, 0xef, 0xe8, 0xf4, 0x07, 0x2b, 0x24, 0xbb, 0xfc, 0xbd, 0xf7, 0x39, 0x25, 0xd5, 0xe6, 0x2a, 0x05, 0x1b, 0xfb, 0xc8, 0xcc, 0xe6, 0x16, 0x16, 0xde, 0xfe, 0xf8, 0xea, 0xd7, 0xff, 0xfb, 0xc1, 0xf5, 0xd8, 0x1a, 0xe5, 0xf4, 0x13, 0xfd, 0xdf, 0x09, 0x33, 0xe1, 0x29, 0x01, 0x31, 0xd6, 0xc9, 0x28, 0xcc, 0x01, 0xf2, 0x14, 0xdf, 0xc6, 0x00, 0xd9, 0x08, 0xd4, 0x15, 0xba, 0x21, 0x12, 0x29, 0xd0, 0xd4, 0x11, 0x22, 0x01, 0x22, 0xc0, 0xfe, 0x32, 0xf6, 0xf2, 0x2b, 0xfe, 0x1f, 0x0c, 0xe2, 0x23, 0xdb, 0xcd, 0x04, 0x38, 0xe5, 0xca, 0xf9, 0xe2, 0xf2, 0xf6, 0xe6, 0x24, 0x31, 0x0c, 0xfa, 0xde, 0xec, 0xe5, 0xdb, 0xff, 0x18, 0x34, 0x15, 0x10, 0x15, 0x24, 0xfa, 0xda, 0x26, 0xda, 0x38, 0xd8, 0x24, 0xe4, 0xfe, 0x29, 0x23, 0x03, 0x14, 0xd3, 0xf6, 0x1d, 0x09, 0x14, 0xf0, 0x12, 0xec, 0xf2, 0x10, 0x0f, 0xd2, 0x22, 0xc7, 0xd6, 0xe2, 0xfe, 0x02, 0x31, 0xe4, 0x12, 0x2e, 0x35, 0xfd, 0xcd, 0x3a, 0xf1, 0x26, 0xe7, 0x21, 0xd6, 0xd1, 0xc9, 0x37, 0x02, 0x2f, 0x25, 0xce, 0xf9, 0x1b, 0xc1, 0xce, 0xf0, 0x0d, 0x00, 0x2d, 0xdc, 0x08, 0xe4, 0x1e, 0x02, 0x28, 0x0f, 0x28, 0xd3, 0xd9, 0xfa, 0xd0, 0xff, 0xfd, 0xbc, 0x0e, 0x10, 0xcc, 0xf5, 0xd2, 0x21, 0x00, 0xd0, 0xf7, 0xbe, 0x24, 0x01, 0x0d, 0x06, 0xd0, 0x14, 0x1f, 0x2d, 0xed, 0x24, 0x1e, 0xf4, 0xf2, 0xda, 0x22, 0x09, 0x26, 0x0c, 0xe3, 0xd4, 0x06, 0x13, 0x01, 0x3d, 0x36, 0xe8, 0x35, 0x36, 0x16, 0xd4, 0xf6, 0xe9, 0xf5, 0x05, 0x37, 0x16, 0xd8, 0x14, 0xea, 0xfc, 0xda, 0xce, 0x26, 0x10, 0xfb, 0x20, 0x01, 0x19, 0xf0, 0x05, 0xf4, 0x29, 0xd8, 0x1c, 0x2c, 0x21, 0x36, 0xdc, 0x17, 0xd6, 0xc5, 0x03, 0x22, 0xf6, 0x11, 0x36, 0xfc, 0xd2, 0x37, 0x3d, 0x0e, 0xce, 0xcc, 0x06, 0xff, 0x2a, 0x29, 0x0f, 0x32, 0x2d, 0xd7, 0x0d, 0xd5, 0xd1, 0x2c, 0x37, 0xd1, 0x33, 0x05, 0xd1, 0xbc, 0xef, 0xdf, 0xff, 0xd6, 0xe7, 0xce, 0x3d, 0xdb, 0xe2, 0xe0, 0xd1, 0xf2, 0x33, 0xd6, 0x10, 0xe6, 0xf1, 0xe3, 0xcf, 0xee, 0xc3, 0x1c, 0xcb, 0x26, 0xcb, 0xf4, 0xf1, 0x3c, 0x2a, 0x04, 0xe1, 0xbe, 0xe4, 0xf7, 0x05, 0x2f, 0x33, 0x03, 0xf5, 0x1f, 0xf9, 0x2b, 0xfa, 0xc7, 0xc2, 0xc5, 0x41, 0x1a, 0xce, 0xca, 0x06, 0xe1, 0x15, 0x34, 0xe7, 0x0c, 0x05, 0xf3, 0x3c, 0xce, 0x14, 0xb7, 0x01, 0x2c, 0x06, 0xc6, 0xc8, 0x0c, 0x08, 0xe0, 0xd8, 0xc4, 0xc7, 0xb9, 0x23, 0xc9, 0x03, 0xd8, 0xc1, 0xef, 0xec, 0x00, 0x1f, 0xd7, 0xd7, 0xce, 0x03, 0x2c, 0xe0, 0xe0, 0xeb, 0x15, 0xb9, 0xc6, 0x1a, 0xfd, 0xcf, 0xe1, 0xde, 0xc9, 0xb7, 0xb9, 0xdc, 0xf0, 0x1a, 0xcd, 0xd3, 0xf4, 0xf1, 0x2e, 0x18, 0x2d, 0x23, 0x1c, 0xf1, 0x23, 0xd7, 0xc4, 0xf0, 0x27, 0x2b, 0xe6, 0xcc, 0xf5, 0x02, 0xd3, 0xef, 0x28, 0x18, 0x1d, 0x19, 0xd9, 0x1c, 0x2b, 0xd2, 0x1b, 0x27, 0xf0, 0xb6, 0x12, 0x33, 0x09, 0xf3, 0xd6, 0x17, 0x1f, 0x19, 0x3f, 0x0b, 0x15, 0xe8, 0x39, 0xd4, 0xff, 0xf4, 0x39, 0x10, 0xdc, 0xff, 0x42, 0xde, 0x03, 0x2c, 0x25, 0xf2, 0xf8, 0x1d, 0xf6, 0xfa, 0x35, 0xd4, 0x03, 0xd8, 0x3a, 0x3d, 0x44, 0xdb, 0xfc, 0x46, 0xeb, 0x16, 0xf3, 0xe2, 0x22, 0xf6, 0x0d, 0xe6, 0xfb, 0x1d, 0xee, 0xfe, 0xe9, 0xf6, 0xda, 0x26, 0xd2, 0xd7, 0xf3, 0x21, 0x39, 0xff, 0x03, 0x37, 0x2f, 0x21, 0xdd, 0x13, 0x28, 0x2f, 0x38, 0x26, 0xd1, 0x00, 0xd1, 0xff, 0xe1, 0x07, 0x2d, 0x1f, 0xd5, 0xe5, 0x26, 0xe8, 0xf0, 0x1e, 0x22, 0x1b, 0x3d, 0x07, 0xeb, 0x17, 0x34, 0x32, 0xed, 0xc8, 0xcb, 0x19, 0x41, 0x44, 0x1b, 0x3d, 0x44, 0xf0, 0xd6, 0x1b, 0x0d, 0xe2, 0x17, 0xeb, 0x3c, 0x1a, 0x16, 0xec, 0xd6, 0xc8, 0xeb, 0xf4, 0x39, 0x06, 0x30, 0x3a, 0xd5, 0xf8, 0xf2, 0xd6, 0xe4, 0x38, 0x05, 0xef, 0xe8, 0x18, 0xdc, 0x3e, 0x3a, 0x39, 0xfd, 0xe6, 0x11, 0x06, 0xff, 0x48, 0x2a, 0xdd, 0xe9, 0xfc, 0x2e, 0xdb, 0x2d, 0xf5, 0xf4, 0xe2, 0xfb, 0xe6, 0x0c, 0xcf, 0xe9, 0xd1, 0xf2, 0xf5, 0xd3, 0xee, 0xfe, 0x0b, 0x0f, 0xe9, 0x28, 0xdd, 0x26, 0xff, 0xf2, 0x0d, 0x03, 0xee, 0x3b, 0xf4, 0x14, 0xe8, 0x25, 0x24, 0x3d, 0x13, 0xee, 0xe3, 0xe1, 0xe0, 0xed, 0x1e, 0x1c, 0x40, 0x27, 0xd6, 0xe2, 0x0a, 0xf4, 0x0e, 0xfa, 0xe3, 0xfa, 0xe4, 0xed, 0xd9, 0x3b, 0x19, 0xe5, 0xd8, 0xef, 0xe5, 0x2a, 0xe7, 0xcf, 0xd4, 0xd9, 0x11, 0x18, 0xff, 0x3c, 0x2f, 0x47, 0x30, 0xf3, 0x0a, 0x2d, 0x44, 0xef, 0xf2, 0xfa, 0x39, 0x3e, 0x03, 0xe6, 0x08, 0xff, 0x47, 0xf6, 0x13, 0x4d, 0xfc, 0xe4, 0x17, 0x04, 0x31, 0x00, 0x04, 0xd0, 0xcf, 0xc9, 0x13, 0x2a, 0xde, 0x07, 0xf1, 0xfc, 0x33, 0x46, 0x4a, 0x2e, 0x0b, 0xd9, 0x42, 0xe7, 0xe1, 0x06, 0xd2, 0xf5, 0xfa, 0xf1, 0xf0, 0x36, 0x27, 0x23, 0x22, 0xee, 0xef, 0x42, 0x20, 0xf9, 0xfb, 0xe0, 0x2b, 0xf6, 0xda, 0x42, 0x41, 0x15, 0xf8, 0x34, 0xf9, 0xeb, 0xe6, 0x06, 0xe8, 0xf1, 0x09, 0x28, 0x30, 0x41, 0x08, 0x22, 0x02, 0x0e, 0xdc, 0x00, 0x24, 0x3e, 0x17, 0x36, 0x06, 0x2a, 0x47, 0xf6, 0x15, 0xcb, 0x12, 0xe9, 0x3f, 0xde, 0x30, 0x19, 0xe4, 0xf5, 0x3d, 0xe1, 0x26, 0x47, 0x2c, 0x1a, 0x10, 0x34, 0xf5, 0x12, 0xdd, 0xdf, 0xc8, 0xca, 0x32, 0x17, 0xdb, 0xfb, 0xd6, 0x20, 0x13, 0xe1, 0xe5, 0x29, 0x12, 0x31, 0x05, 0xff, 0xe5, 0x0b, 0xff, 0x0a, 0x16, 0xdd, 0x21, 0x2a, 0x42, 0x3b, 0xec, 0xde, 0xfc, 0x1d, 0x1b, 0x23, 0x0e, 0x32, 0xe9, 0x1d, 0xf0, 0x40, 0x42, 0x28, 0x19, 0xe9, 0xf6, 0x17, 0x0a, 0x25, 0xf0, 0x15, 0xd2, 0xe3, 0xe3, 0xcf, 0xe0, 0x17, 0xe1, 0xfa, 0x09, 0xc4, 0x19, 0x23, 0x06, 0x37, 0x30, 0x1c, 0x38, 0x32, 0x11, 0xff, 0xec, 0x39, 0xf6, 0xec, 0x26, 0x10, 0x37, 0x1a, 0x07, 0x3c, 0x27, 0x3d, 0x30, 0x00, 0xef, 0xfb, 0x31, 0xfc, 0x16, 0x05, 0xf7, 0xd5, 0xff, 0x0c, 0xea, 0xf7, 0x41, 0xd1, 0x06, 0x18, 0x2b, 0xdf, 0x20, 0xda, 0x38, 0xcf, 0x30, 0x2e, 0xf2, 0x0a, 0x0d, 0x3d, 0x39, 0x0e, 0xde, 0x1d, 0x29, 0x40, 0x00, 0xfd, 0xeb, 0xfb, 0x0d, 0x33, 0xea, 0xde, 0x3b, 0x28, 0x10, 0x17, 0x39, 0xd6, 0x3d, 0x19, 0xfd, 0xd1, 0x2c, 0x25, 0x09, 0xd7, 0xd2, 0x2e, 0xcf, 0x33, 0xf3, 0xdc, 0x0d, 0xfb, 0xfc, 0x0b, 0xcd, 0xca, 0xda, 0x26, 0xde, 0xff, 0x26, 0xea, 0x08, 0xee, 0x37, 0xf0, 0xff, 0x42, 0x31, 0x12, 0x27, 0xf3, 0x03, 0xd9, 0x25, 0x36, 0x23, 0x1c, 0xe5, 0x2a, 0x10, 0xe7, 0xe8, 0xcb, 0xdb, 0xfb, 0xe7, 0xf3, 0x04, 0xff, 0xee, 0x35, 0xde, 0x2c, 0x10, 0xed, 0x1c, 0xdd, 0xe3, 0x33, 0x2c, 0x2b, 0xfc, 0x38, 0xc9, 0xee, 0xf3, 0xd3, 0xde, 0xcf, 0x31, 0xe3, 0x3c, 0x18, 0x29, 0xc4, 0xe2, 0x14, 0xfb, 0x49, 0xe8, 0x26, 0xf6, 0xd6, 0x0c, 0xe8, 0x35, 0x20, 0x13, 0x03, 0xc7, 0xfd, 0xea, 0x2a, 0xc3, 0xea, 0xda, 0xe3, 0xe9, 0x24, 0xe2, 0xe4, 0x06, 0xe2, 0x20, 0xd7, 0x36, 0x37, 0x1d, 0x33, 0x2c, 0x1f, 0xea, 0xc4, 0x2d, 0x13, 0xdc, 0x3d, 0xd8, 0x2e, 0xec, 0xe8, 0xe9, 0x2f, 0xfc, 0xdc, 0xfa, 0xe0, 0x05, 0x16, 0xd8, 0xff, 0xef, 0x2d, 0xe6, 0xce, 0x34, 0x2b, 0xf9, 0xea, 0xdb, 0x2b, 0x1d, 0x0e, 0xd2, 0x1c, 0xe8, 0x1c, 0x16, 0x1d, 0x1f, 0x35, 0x27, 0x21, 0xe6, 0xcb, 0x0a, 0xcd, 0x1d, 0xd5, 0xc6, 0xdf, 0x0f, 0x21, 0x26, 0xef, 0xf7, 0x2e, 0x2b, 0x45, 0x41, 0xea, 0x3d, 0xf3, 0xde, 0xcf, 0xdd, 0xd9, 0x3c, 0xf4, 0x17, 0xd2, 0x34, 0xed, 0xe8, 0x23, 0x29, 0x10, 0x2a, 0xdb, 0xe4, 0xef, 0x26, 0x0b, 0x00, 0xda, 0xbd, 0xdb, 0x1b, 0x20, 0x2a, 0xd6, 0xd1, 0x16, 0xf4, 0x05, 0x10, 0xd4, 0x3a, 0xfe, 0x1d, 0x26, 0x3b, 0x09, 0xe5, 0xe7, 0x0a, 0xf3, 0x1e, 0x19, 0xf0, 0xd9, 0x18, 0x00, 0x22, 0x10, 0xec, 0xfd, 0x08, 0x27, 0x2e, 0x37, 0x0b, 0xea, 0x34, 0xd1, 0x16, 0xde, 0xcf, 0x0f, 0x35, 0xeb, 0xfd, 0xf9, 0xbf, 0x29, 0x08, 0xd7, 0xe4, 0xcb, 0x04, 0xf3, 0x20, 0x2a, 0xe6, 0xfe, 0xf1, 0x30, 0x35, 0x45, 0x24, 0x4d, 0x42, 0x04, 0x39, 0xee, 0x05, 0xeb, 0x29, 0x2e, 0xf9, 0x24, 0xd5, 0x40, 0xd9, 0xde, 0xd3, 0xe4, 0x23, 0x22, 0x10, 0x31, 0xf4, 0xc6, 0x0a, 0x30, 0xd0, 0xf7, 0x2e, 0x06, 0xe7, 0x2c, 0xe2, 0x3a, 0xda, 0xd4, 0x0a, 0xd1, 0x11, 0xed, 0x0a, 0x10, 0x38, 0xea, 0xc6, 0x2e, 0xe9, 0xf5, 0xfc, 0x32, 0x18, 0x13, 0xe3, 0xdd, 0xee, 0x2f, 0x1d, 0xd6, 0xe5, 0x2d, 0x39, 0xec, 0x2b, 0x44, 0xf8, 0xe7, 0x06, 0x01, 0x1b, 0xeb, 0x34, 0xf0, 0xd5, 0x2b, 0xe1, 0xd6, 0x07, 0x12, 0x1c, 0x0c, 0x09, 0xc9, 0x3e, 0x0e, 0xde, 0x22, 0x27, 0xed, 0x4c, 0xcf, 0xec, 0x23, 0x44, 0x1c, 0x14, 0xf3, 0xf4, 0x3d, 0xd4, 0x32, 0xfe, 0x45, 0x0d, 0x03, 0x22, 0xf2, 0xcb, 0xe2, 0x25, 0xd5, 0x23, 0xe5, 0xd1, 0x15, 0xe6, 0xd2, 0x25, 0x12, 0xe1, 0x28, 0xda, 0x06, 0xde, 0xf6, 0xda, 0x23, 0x3b, 0x1b, 0xcd, 0x30, 0xd2, 0xd8, 0xe5, 0x3a, 0x38, 0xf6, 0xf2, 0x2e, 0xd6, 0x30, 0x0f, 0xee, 0xf7, 0x28, 0xce, 0xff, 0x0f, 0xd2, 0x43, 0xe2, 0x00, 0x0b, 0xeb, 0xd8, 0x24, 0x35, 0x0d, 0xe6, 0xe0, 0x0d, 0x43, 0x08, 0xee, 0x1d, 0xec, 0x11, 0x37, 0xc6, 0xe8, 0xf1, 0x29, 0x1c, 0x4a, 0xe9, 0xe8, 0x34, 0xee, 0xff, 0xff, 0xff, 0x04, 0x00, 0x00, 0x00, 0x04, 0x00, 0x00, 0x00, 0xd2, 0x9e, 0x02, 0x3c, 0x00, 0x00, 0x06, 0x00, 0x08, 0x00, 0x04, 0x00, 0x06, 0x00, 0x00, 0x00, 0x04, 0x00, 0x00, 0x00, 0x14, 0x00, 0x00, 0x00, 0x93, 0x2e, 0xb5, 0x3d, 0xa1, 0x04, 0xf8, 0xbb, 0xa9, 0x63, 0x75, 0x3c, 0xc4, 0x2e, 0x9c, 0x3b, 0xf1, 0xe7, 0xa0, 0x3c, 0x50, 0xfc, 0xff, 0xff, 0x54, 0xfc, 0xff, 0xff, 0x0f, 0x00, 0x00, 0x00, 0x4d, 0x4c, 0x49, 0x52, 0x20, 0x43, 0x6f, 0x6e, 0x76, 0x65, 0x72, 0x74, 0x65, 0x64, 0x2e, 0x00, 0x01, 0x00, 0x00, 0x00, 0x14, 0x00, 0x00, 0x00, 0x00, 0x00, 0x0e, 0x00, 0x18, 0x00, 0x04, 0x00, 0x08, 0x00, 0x0c, 0x00, 0x10, 0x00, 0x14, 0x00, 0x0e, 0x00, 0x00, 0x00, 0xf8, 0x00, 0x00, 0x00, 0xec, 0x00, 0x00, 0x00, 0xe0, 0x00, 0x00, 0x00, 0x14, 0x00, 0x00, 0x00, 0x04, 0x00, 0x00, 0x00, 0x04, 0x00, 0x00, 0x00, 0x6d, 0x61, 0x69, 0x6e, 0x00, 0x00, 0x00, 0x00, 0x03, 0x00, 0x00, 0x00, 0x88, 0x00, 0x00, 0x00, 0x44, 0x00, 0x00, 0x00, 0x10, 0x00, 0x00, 0x00, 0x00, 0x00, 0x0a, 0x00, 0x10, 0x00, 0x04, 0x00, 0x08, 0x00, 0x0c, 0x00, 0x0a, 0x00, 0x00, 0x00, 0x01, 0x00, 0x00, 0x00, 0x10, 0x00, 0x00, 0x00, 0x04, 0x00, 0x00, 0x00, 0x01, 0x00, 0x00, 0x00, 0x07, 0x00, 0x00, 0x00, 0x01, 0x00, 0x00, 0x00, 0x06, 0x00, 0x00, 0x00, 0x00, 0x00, 0x0e, 0x00, 0x14, 0x00, 0x00, 0x00, 0x08, 0x00, 0x0c, 0x00, 0x07, 0x00, 0x10, 0x00, 0x0e, 0x00, 0x00, 0x00, 0x00, 0x00, 0x00, 0x08, 0x18, 0x00, 0x00, 0x00, 0x0c, 0x00, 0x00, 0x00, 0x04, 0x00, 0x00, 0x00, 0x08, 0xfd, 0xff, 0xff, 0x01, 0x00, 0x00, 0x00, 0x06, 0x00, 0x00, 0x00, 0x03, 0x00, 0x00, 0x00, 0x05, 0x00, 0x00, 0x00, 0x04, 0x00, 0x00, 0x00, 0x02, 0x00, 0x00, 0x00, 0x00, 0x00, 0x0e, 0x00, 0x16, 0x00, 0x00, 0x00, 0x08, 0x00, 0x0c, 0x00, 0x07, 0x00, 0x10, 0x00, 0x0e, 0x00, 0x00, 0x00, 0x00, 0x00, 0x00, 0x08, 0x24, 0x00, 0x00, 0x00, 0x18, 0x00, 0x00, 0x00, 0x0c, 0x00, 0x00, 0x00, 0x00, 0x00, 0x06, 0x00, 0x08, 0x00, 0x07, 0x00, 0x06, 0x00, 0x00, 0x00, 0x00, 0x00, 0x00, 0x01, 0x01, 0x00, 0x00, 0x00, 0x05, 0x00, 0x00, 0x00, 0x03, 0x00, 0x00, 0x00, 0x00, 0x00, 0x00, 0x00, 0x03, 0x00, 0x00, 0x00, 0x01, 0x00, 0x00, 0x00, 0x01, 0x00, 0x00, 0x00, 0x07, 0x00, 0x00, 0x00, 0x01, 0x00, 0x00, 0x00, 0x00, 0x00, 0x00, 0x00, 0x08, 0x00, 0x00, 0x00, 0x68, 0x02, 0x00, 0x00, 0x00, 0x02, 0x00, 0x00, 0xa8, 0x01, 0x00, 0x00, 0x2c, 0x01, 0x00, 0x00, 0xd0, 0x00, 0x00, 0x00, 0x88, 0x00, 0x00, 0x00, 0x3c, 0x00, 0x00, 0x00, 0x04, 0x00, 0x00, 0x00, 0xc6, 0xfd, 0xff, 0xff, 0x24, 0x00, 0x00, 0x00, 0x08, 0x00, 0x00, 0x00, 0x0c, 0x00, 0x00, 0x00, 0x04, 0x00, 0x00, 0x00, 0xb8, 0xfd, 0xff, 0xff, 0x08, 0x00, 0x00, 0x00, 0x49, 0x64, 0x65, 0x6e, 0x74, 0x69, 0x74, 0x79, 0x00, 0x00, 0x00, 0x00, 0x02, 0x00, 0x00, 0x00, 0x01, 0x00, 0x00, 0x00, 0x01, 0x00, 0x00, 0x00, 0xfa, 0xfd, 0xff, 0xff, 0x38, 0x00, 0x00, 0x00, 0x07, 0x00, 0x00, 0x00, 0x0c, 0x00, 0x00, 0x00, 0x04, 0x00, 0x00, 0x00, 0xec, 0xfd, 0xff, 0xff, 0x1d, 0x00, 0x00, 0x00, 0x73, 0x65, 0x71, 0x75, 0x65, 0x6e, 0x74, 0x69, 0x61, 0x6c, 0x5f, 0x38, 0x2f, 0x64, 0x65, 0x6e, 0x73, 0x65, 0x5f, 0x32, 0x33, 0x2f, 0x42, 0x69, 0x61, 0x73, 0x41, 0x64, 0x64, 0x00, 0x00, 0x00, 0x02, 0x00, 0x00, 0x00, 0x01, 0x00, 0x00, 0x00, 0x01, 0x00, 0x00, 0x00, 0x42, 0xfe, 0xff, 0xff, 0x34, 0x00, 0x00, 0x00, 0x06, 0x00, 0x00, 0x00, 0x0c, 0x00, 0x00, 0x00, 0x04, 0x00, 0x00, 0x00, 0x34, 0xfe, 0xff, 0xff, 0x1a, 0x00, 0x00, 0x00, 0x73, 0x65, 0x71, 0x75, 0x65, 0x6e, 0x74, 0x69, 0x61, 0x6c, 0x5f, 0x38, 0x2f, 0x64, 0x65, 0x6e, 0x73, 0x65, 0x5f, 0x32, 0x32, 0x2f, 0x52, 0x65, 0x6c, 0x75, 0x00, 0x00, 0x02, 0x00, 0x00, 0x00, 0x01, 0x00, 0x00, 0x00, 0x05, 0x00, 0x00, 0x00, 0x86, 0xfe, 0xff, 0xff, 0x38, 0x00, 0x00, 0x00, 0x05, 0x00, 0x00, 0x00, 0x0c, 0x00, 0x00, 0x00, 0x04, 0x00, 0x00, 0x00, 0x78, 0xfe, 0xff, 0xff, 0x1c, 0x00, 0x00, 0x00, 0x73, 0x65, 0x71, 0x75, 0x65, 0x6e, 0x74, 0x69, 0x61, 0x6c, 0x5f, 0x38, 0x2f, 0x64, 0x65, 0x6e, 0x73, 0x65, 0x5f, 0x32, 0x33, 0x2f, 0x4d, 0x61, 0x74, 0x4d, 0x75, 0x6c, 0x00, 0x00, 0x00, 0x00, 0x02, 0x00, 0x00, 0x00, 0x01, 0x00, 0x00, 0x00, 0x05, 0x00, 0x00, 0x00, 0x00, 0x00, 0x0e, 0x00, 0x18, 0x00, 0x08, 0x00, 0x07, 0x00, 0x0c, 0x00, 0x10, 0x00, 0x14, 0x00, 0x0e, 0x00, 0x00, 0x00, 0x00, 0x00, 0x00, 0x09, 0x64, 0x00, 0x00, 0x00, 0x04, 0x00, 0x00, 0x00, 0x38, 0x00, 0x00, 0x00, 0x10, 0x00, 0x00, 0x00, 0x0c, 0x00, 0x0c, 0x00, 0x00, 0x00, 0x00, 0x00, 0x04, 0x00, 0x08, 0x00, 0x0c, 0x00, 0x00, 0x00, 0x18, 0x00, 0x00, 0x00, 0x04, 0x00, 0x00, 0x00, 0x01, 0x00, 0x00, 0x00, 0x00, 0x00, 0x00, 0x00, 0x00, 0x00, 0x00, 0x00, 0x00, 0x00, 0x00, 0x00, 0x01, 0x00, 0x00, 0x00, 0x5a, 0xa7, 0xb3, 0x3a, 0x1c, 0x00, 0x00, 0x00, 0x73, 0x65, 0x71, 0x75, 0x65, 0x6e, 0x74, 0x69, 0x61, 0x6c, 0x5f, 0x38, 0x2f, 0x64, 0x65, 0x6e, 0x73, 0x65, 0x5f, 0x32, 0x32, 0x2f, 0x4d, 0x61, 0x74, 0x4d, 0x75, 0x6c, 0x00, 0x00, 0x00, 0x00, 0x02, 0x00, 0x00, 0x00, 0x05, 0x00, 0x00, 0x00, 0x84, 0x03, 0x00, 0x00, 0x56, 0xff, 0xff, 0xff, 0x48, 0x00, 0x00, 0x00, 0x03, 0x00, 0x00, 0x00, 0x0c, 0x00, 0x00, 0x00, 0x04, 0x00, 0x00, 0x00, 0x48, 0xff, 0xff, 0xff, 0x2c, 0x00, 0x00, 0x00, 0x73, 0x65, 0x71, 0x75, 0x65, 0x6e, 0x74, 0x69, 0x61, 0x6c, 0x5f, 0x38, 0x2f, 0x64, 0x65, 0x6e, 0x73, 0x65, 0x5f, 0x32, 0x33, 0x2f, 0x42, 0x69, 0x61, 0x73, 0x41, 0x64, 0x64, 0x2f, 0x52, 0x65, 0x61, 0x64, 0x56, 0x61, 0x72, 0x69, 0x61, 0x62, 0x6c, 0x65, 0x4f, 0x70, 0x00, 0x00, 0x00, 0x00, 0x01, 0x00, 0x00, 0x00, 0x01, 0x00, 0x00, 0x00, 0xaa, 0xff, 0xff, 0xff, 0x48, 0x00, 0x00, 0x00, 0x02, 0x00, 0x00, 0x00, 0x0c, 0x00, 0x00, 0x00, 0x04, 0x00, 0x00, 0x00, 0x9c, 0xff, 0xff, 0xff, 0x2c, 0x00, 0x00, 0x00, 0x73, 0x65, 0x71, 0x75, 0x65, 0x6e, 0x74, 0x69, 0x61, 0x6c, 0x5f, 0x38, 0x2f, 0x64, 0x65, 0x6e, 0x73, 0x65, 0x5f, 0x32, 0x32, 0x2f, 0x42, 0x69, 0x61, 0x73, 0x41, 0x64, 0x64, 0x2f, 0x52, 0x65, 0x61, 0x64, 0x56, 0x61, 0x72, 0x69, 0x61, 0x62, 0x6c, 0x65, 0x4f, 0x70, 0x00, 0x00, 0x00, 0x00, 0x01, 0x00, 0x00, 0x00, 0x05, 0x00, 0x00, 0x00, 0x00, 0x00, 0x0e, 0x00, 0x14, 0x00, 0x04, 0x00, 0x00, 0x00, 0x08, 0x00, 0x0c, 0x00, 0x10, 0x00, 0x0e, 0x00, 0x00, 0x00, 0x2c, 0x00, 0x00, 0x00, 0x01, 0x00, 0x00, 0x00, 0x10, 0x00, 0x00, 0x00, 0x08, 0x00, 0x00, 0x00, 0x04, 0x00, 0x04, 0x00, 0x04, 0x00, 0x00, 0x00, 0x0e, 0x00, 0x00, 0x00, 0x64, 0x65, 0x6e, 0x73, 0x65, 0x5f, 0x32, 0x32, 0x5f, 0x69, 0x6e, 0x70, 0x75, 0x74, 0x00, 0x00, 0x02, 0x00, 0x00, 0x00, 0x01, 0x00, 0x00, 0x00, 0x84, 0x03, 0x00, 0x00, 0x02, 0x00, 0x00, 0x00, 0x20, 0x00, 0x00, 0x00, 0x0c, 0x00, 0x00, 0x00, 0x00, 0x00, 0x06, 0x00, 0x06, 0x00, 0x05, 0x00, 0x06, 0x00, 0x00, 0x00, 0x00, 0x0e, 0x0a, 0x00, 0x0c, 0x00, 0x07, 0x00, 0x00, 0x00, 0x08, 0x00, 0x0a, 0x00, 0x00, 0x00, 0x00, 0x00, 0x00, 0x09, 0x03, 0x00, 0x00, 0x00};
const int model_data_len = 5720;