
#ifdef __has_attribute
#define HAVE_ATTRIBUTE(x) __has_attribute(x)
#else
#define HAVE_ATTRIBUTE(x) 0
#endif
#if HAVE_ATTRIBUTE(aligned) || (defined(__GNUC__) && !defined(__clang__))
#define DATA_ALIGN_ATTRIBUTE __attribute__((aligned(4)))
#else
#define DATA_ALIGN_ATTRIBUTE
#endif

const unsigned char model_data[] DATA_ALIGN_ATTRIBUTE = {0x08, 0x00, 0x00, 0x00, 0x54, 0x46, 0x4c, 0x33, 0xba, 0xf9, 0xff, 0xff, 0x03, 0x00, 0x00, 0x00, 0x30, 0x0c, 0x00, 0x00, 0x30, 0x06, 0x00, 0x00, 0x18, 0x06, 0x00, 0x00, 0x04, 0x00, 0x00, 0x00, 0x0e, 0x00, 0x00, 0x00, 0x08, 0x06, 0x00, 0x00, 0x00, 0x06, 0x00, 0x00, 0xec, 0x05, 0x00, 0x00, 0xcc, 0x05, 0x00, 0x00, 0xbc, 0x00, 0x00, 0x00, 0xa8, 0x00, 0x00, 0x00, 0x74, 0x00, 0x00, 0x00, 0x50, 0x00, 0x00, 0x00, 0x2c, 0x00, 0x00, 0x00, 0x24, 0x00, 0x00, 0x00, 0x1c, 0x00, 0x00, 0x00, 0x14, 0x00, 0x00, 0x00, 0x0c, 0x00, 0x00, 0x00, 0x04, 0x00, 0x00, 0x00, 0x58, 0xf4, 0xff, 0xff, 0x5c, 0xf4, 0xff, 0xff, 0x60, 0xf4, 0xff, 0xff, 0x64, 0xf4, 0xff, 0xff, 0x68, 0xf4, 0xff, 0xff, 0x5e, 0xfa, 0xff, 0xff, 0x04, 0x00, 0x00, 0x00, 0x14, 0x00, 0x00, 0x00, 0x84, 0x2f, 0x52, 0x3d, 0x33, 0xf2, 0x8e, 0x3d, 0x18, 0x58, 0xb1, 0x3d, 0xbb, 0x08, 0x91, 0x3a, 0xd3, 0x05, 0x89, 0x3d, 0x7e, 0xfa, 0xff, 0xff, 0x04, 0x00, 0x00, 0x00, 0x14, 0x00, 0x00, 0x00, 0xd3, 0x1c, 0xc0, 0x3e, 0xe0, 0xc8, 0x8c, 0x3f, 0xf7, 0x44, 0x10, 0xbf, 0x98, 0x6a, 0x90, 0xbe, 0xbc, 0x6d, 0x78, 0x3f, 0x9e, 0xfa, 0xff, 0xff, 0x04, 0x00, 0x00, 0x00, 0x24, 0x00, 0x00, 0x00, 0x1c, 0x9e, 0x06, 0xbc, 0xba, 0x31, 0x3d, 0xbd, 0x59, 0x68, 0x28, 0x3f, 0x09, 0x8a, 0x4a, 0x3f, 0x9d, 0x8d, 0x35, 0xbe, 0x74, 0xab, 0x11, 0x3f, 0x22, 0xdd, 0x1a, 0x3f, 0x2a, 0x9d, 0xa8, 0x3e, 0x34, 0xb2, 0xec, 0x3e, 0xce, 0xfa, 0xff, 0xff, 0x04, 0x00, 0x00, 0x00, 0x04, 0x00, 0x00, 0x00, 0x00, 0x00, 0x00, 0x00, 0xde, 0xfa, 0xff, 0xff, 0x04, 0x00, 0x00, 0x00, 0x00, 0x05, 0x00, 0x00, 0x4f, 0x79, 0x4b, 0xbc, 0x88, 0x63, 0xd8, 0xbd, 0x1e, 0xc6, 0x53, 0xbd, 0xde, 0x25, 0xba, 0xbd, 0x6d, 0x02, 0x81, 0xbc, 0xf8, 0x91, 0x61, 0x3e, 0x2e, 0x1a, 0x98, 0x3d, 0x11, 0x43, 0x02, 0xbe, 0x20, 0xf8, 0xca, 0x3d, 0x3d, 0x2d, 0x9b, 0x3d, 0x46, 0x7b, 0x2f, 0x3e, 0xb7, 0x0c, 0x4c, 0xbd, 0xab, 0xae, 0x29, 0xbe, 0xcc, 0x9e, 0x26, 0xbe, 0x9b, 0xcd, 0x1f, 0x3e, 0x76, 0x84, 0x73, 0xbc, 0x38, 0xa7, 0x23, 0x3e, 0x8a, 0x3b, 0xbc, 0xbd, 0x08, 0x1a, 0x5e, 0xbe, 0x4e, 0x07, 0xa8, 0x3d, 0xbd, 0x2f, 0x2c, 0x3e, 0xcf, 0x08, 0x1f, 0x3e, 0x25, 0x03, 0xa3, 0x3d, 0x82, 0x1a, 0x90, 0xbd, 0x09, 0xfa, 0x35, 0x3e, 0xb3, 0x15, 0xf3, 0x3d, 0xb7, 0x45, 0x2d, 0x3e, 0xf9, 0x68, 0xe3, 0xbc, 0x02, 0x91, 0xc4, 0x3d, 0x85, 0xc5, 0xa0, 0x3d, 0xd6, 0x92, 0x01, 0x3e, 0x66, 0xf5, 0x68, 0x3e, 0xc4, 0x25, 0xcc, 0x3d, 0x3a, 0x7a, 0xb8, 0xbd, 0x86, 0x8d, 0x1a, 0x3c, 0xbf, 0xca, 0x11, 0xb9, 0xb6, 0x93, 0x84, 0x3d, 0x44, 0x2c, 0xd5, 0xbd, 0x1b, 0x39, 0xfa, 0xbd, 0x2c, 0x75, 0x42, 0x3e, 0x99, 0x8f, 0xed, 0x3d, 0x48, 0x73, 0x47, 0xbd, 0x5e, 0xea, 0xb6, 0x3a, 0x12, 0x17, 0x40, 0xbd, 0x7f, 0x6b, 0x7b, 0x3d, 0x20, 0x15, 0x19, 0x3e, 0x10, 0xb4, 0x3f, 0x3d, 0x2d, 0x0c, 0xde, 0x3d, 0xcc, 0x27, 0x1f, 0x3d, 0x95, 0x11, 0x2a, 0x3e, 0xa1, 0x18, 0x05, 0x3e, 0x81, 0x45, 0xd9, 0x3d, 0xe0, 0xc7, 0x39, 0xbe, 0x2a, 0x25, 0xaa, 0xbd, 0x4e, 0xb0, 0x47, 0x3e, 0xb5, 0x6d, 0x22, 0x3c, 0x56, 0xff, 0x01, 0x3c, 0x07, 0xd9, 0x26, 0xbe, 0x6c, 0xf7, 0x26, 0xbe, 0xf3, 0x7b, 0xef, 0x3b, 0x9f, 0x6a, 0x87, 0x3c, 0xa6, 0xe0, 0x1e, 0xbc, 0x8c, 0x8d, 0xac, 0x3d, 0x7e, 0xfd, 0x33, 0x3d, 0x92, 0xde, 0x8e, 0xba, 0xa0, 0x66, 0x86, 0x3e, 0xfc, 0xe9, 0x69, 0x3e, 0x98, 0xe4, 0x95, 0xbd, 0xea, 0x20, 0x9c, 0x3d, 0x6c, 0x4e, 0x7d, 0x3e, 0x40, 0x01, 0xbd, 0xbd, 0x03, 0x70, 0x85, 0x3d, 0xe9, 0x61, 0xc5, 0x3c, 0x18, 0x80, 0xf9, 0xbb, 0xdf, 0x43, 0xf6, 0xbd, 0x86, 0xe1, 0xf0, 0x3d, 0x6d, 0x83, 0xf7, 0x3d, 0x0b, 0x0d, 0x97, 0xbc, 0x0d, 0x67, 0xcb, 0x3d, 0x80, 0x79, 0x21, 0x3e, 0xa5, 0xd9, 0xf6, 0xbd, 0x4e, 0x31, 0x2f, 0x3b, 0xcf, 0xf9, 0xae, 0xbd, 0x5a, 0x40, 0xae, 0x3d, 0x45, 0x56, 0x2c, 0xbc, 0xc3, 0x96, 0x2a, 0x3e, 0x0c, 0x14, 0xc1, 0x3d, 0x58, 0x4a, 0x39, 0x3e, 0xa8, 0x98, 0x41, 0x3e, 0x4a, 0x9d, 0x23, 0x3e, 0xcf, 0x3c, 0xdc, 0x3d, 0xd6, 0xc5, 0xc7, 0xbc, 0x49, 0x5b, 0xb0, 0x3d, 0xf2, 0xf7, 0xc3, 0x3d, 0x5d, 0xbc, 0xa2, 0xbd, 0xe9, 0x6e, 0xd4, 0x3b, 0x33, 0x4e, 0x1f, 0x3d, 0xdf, 0xf7, 0xfe, 0x3d, 0x46, 0xcd, 0x43, 0xbd, 0xd7, 0xc1, 0x9c, 0xbd, 0x1d, 0xe2, 0x07, 0x3e, 0xc2, 0xaf, 0xe7, 0x3d, 0xbe, 0x8e, 0x40, 0x3e, 0x5e, 0x5d, 0x4b, 0x3e, 0x9f, 0xd8, 0x45, 0x3e, 0x00, 0x7e, 0xfe, 0x3d, 0x9d, 0x07, 0x70, 0x3d, 0x0d, 0x39, 0x36, 0x3d, 0x8b, 0xee, 0x4d, 0x3e, 0xf7, 0xb1, 0x36, 0x3e, 0x84, 0x57, 0x1e, 0x3e, 0x7d, 0x3f, 0xae, 0x3d, 0xc1, 0xbd, 0xc3, 0x3d, 0xb8, 0xd4, 0x4a, 0x3c, 0xdd, 0xb5, 0x46, 0x3d, 0x16, 0x9e, 0x03, 0x3d, 0xb4, 0xce, 0x85, 0x3d, 0xa6, 0xaa, 0xdd, 0xbb, 0xc2, 0x61, 0x8a, 0x3d, 0x23, 0x6f, 0xb6, 0xbd, 0xa3, 0xfb, 0xa6, 0xbd, 0x08, 0x26, 0xa5, 0x3c, 0x93, 0x17, 0xbd, 0x3c, 0x7a, 0xcf, 0x47, 0x3d, 0xbd, 0x60, 0x7b, 0x3d, 0x03, 0x3c, 0xf3, 0x3d, 0x97, 0x79, 0xa8, 0x3c, 0xbe, 0x86, 0x8d, 0x3d, 0xc5, 0x62, 0x84, 0xbc, 0xff, 0x45, 0x36, 0x3d, 0xb7, 0x84, 0x0b, 0xbe, 0x34, 0xbc, 0xd0, 0x3d, 0x02, 0x4b, 0xa8, 0xbd, 0x47, 0xd3, 0x0b, 0xbd, 0xdd, 0x6e, 0xdd, 0xbd, 0x9f, 0x49, 0x9e, 0x3c, 0xc4, 0x0b, 0xf0, 0xbd, 0xa4, 0x92, 0x12, 0x3d, 0x30, 0x17, 0xe5, 0xbd, 0x30, 0x00, 0x5d, 0xbd, 0x3d, 0x0b, 0xd0, 0x3b, 0x1d, 0x36, 0x9a, 0x3d, 0x2b, 0x21, 0x2d, 0xbd, 0x61, 0xf6, 0x02, 0xbe, 0xd0, 0x51, 0x5b, 0xbd, 0x26, 0x75, 0xd0, 0x3d, 0x1b, 0x29, 0xf4, 0x3d, 0x9a, 0x1c, 0x14, 0x3e, 0xcc, 0x2d, 0x3b, 0x3d, 0x0d, 0x14, 0x89, 0xbd, 0xb6, 0x0b, 0x24, 0x3d, 0xe9, 0xe7, 0xa2, 0x3d, 0x0a, 0xab, 0x27, 0xbd, 0x47, 0xa6, 0x0c, 0x3e, 0x97, 0x72, 0x39, 0xbd, 0x88, 0x67, 0xa5, 0xbd, 0x6c, 0xf1, 0x34, 0xbd, 0xdd, 0x3c, 0x19, 0x3e, 0xb2, 0x18, 0xb3, 0x3d, 0xa2, 0x49, 0x07, 0xbe, 0x76, 0xe6, 0x95, 0xba, 0xb0, 0x72, 0xad, 0x3b, 0xb2, 0xe4, 0x81, 0x3e, 0xd2, 0x60, 0x89, 0x3e, 0xd1, 0xfb, 0x35, 0x3d, 0x56, 0x1f, 0xb3, 0x3d, 0x51, 0x1d, 0x94, 0xbd, 0xbd, 0x2e, 0x50, 0xbe, 0xeb, 0xe4, 0x56, 0xbe, 0xc7, 0xa4, 0x19, 0x3d, 0xd3, 0x67, 0x41, 0xbe, 0x60, 0x14, 0xbe, 0x3c, 0x7b, 0xb2, 0xa9, 0x3d, 0x73, 0x04, 0x14, 0xbd, 0xb2, 0x2b, 0x38, 0xbe, 0xb9, 0x52, 0x21, 0xbe, 0x1e, 0x79, 0x13, 0xbb, 0x12, 0xc2, 0xa2, 0xbd, 0x40, 0xd9, 0x0e, 0x3d, 0x6c, 0x9c, 0x89, 0x3d, 0x47, 0x83, 0x4d, 0xbd, 0x65, 0x8c, 0x51, 0xbe, 0x85, 0x92, 0x53, 0xbe, 0x6f, 0x7c, 0x47, 0xbe, 0xb2, 0xfb, 0x1e, 0xbe, 0x5b, 0x9b, 0xe4, 0xbd, 0x49, 0xf9, 0xda, 0xbd, 0xf0, 0x32, 0xaf, 0xbd, 0x54, 0xf9, 0x16, 0xbe, 0x37, 0xd9, 0x24, 0xbc, 0xc6, 0x5b, 0xd8, 0x3d, 0x0c, 0xc8, 0x27, 0xbd, 0xfd, 0xaa, 0xcd, 0xbd, 0xfb, 0xb0, 0xf9, 0xbd, 0x5a, 0xd6, 0x99, 0x3d, 0xee, 0x63, 0xd0, 0xbc, 0xdd, 0x61, 0xb5, 0x3d, 0x16, 0xb9, 0x43, 0x3e, 0x1f, 0x88, 0x0c, 0x3e, 0x8d, 0x5e, 0x5c, 0xbd, 0x7f, 0x80, 0x5a, 0xbd, 0x34, 0x76, 0x4d, 0x3d, 0xec, 0xff, 0x72, 0x3e, 0x07, 0xa7, 0xb3, 0x3d, 0x3e, 0x83, 0x4d, 0x3d, 0x43, 0xdd, 0x92, 0xbc, 0xaf, 0x1f, 0xd8, 0x3d, 0x82, 0xf1, 0xe5, 0xbd, 0xa9, 0x6c, 0xb2, 0x3c, 0x96, 0xd0, 0xd6, 0x3c, 0xb1, 0x69, 0x2b, 0xbc, 0x33, 0x82, 0x9c, 0x3c, 0xdd, 0xef, 0xfd, 0xbd, 0x06, 0xbc, 0x60, 0xbe, 0x13, 0xad, 0xde, 0x3b, 0x6d, 0xad, 0x2a, 0xbe, 0xac, 0xd6, 0x42, 0x3c, 0xe4, 0x64, 0x13, 0xbe, 0x99, 0xbd, 0xf7, 0xbd, 0xef, 0x5a, 0x3d, 0xbe, 0xf7, 0xa4, 0x3b, 0xbe, 0x4e, 0xed, 0x50, 0xbd, 0x23, 0xd4, 0x4d, 0x3c, 0x1c, 0x97, 0x2c, 0xbe, 0xfd, 0xc5, 0x1b, 0xbc, 0xcb, 0x69, 0x14, 0xbe, 0x54, 0x45, 0x37, 0xbe, 0xb1, 0x42, 0x49, 0x3b, 0x38, 0xf1, 0x4b, 0xbe, 0xc6, 0xd3, 0x9e, 0xbd, 0x52, 0x7d, 0xc1, 0xbd, 0x65, 0x38, 0xb2, 0xbd, 0x7a, 0x7b, 0xbe, 0x3b, 0x07, 0x11, 0x0d, 0x3e, 0x6c, 0xac, 0x08, 0xbe, 0x64, 0x9a, 0xd7, 0xbb, 0xf8, 0x93, 0x8e, 0x3d, 0x68, 0xbb, 0x59, 0x3e, 0x26, 0x3b, 0xf4, 0x3d, 0x7f, 0x2f, 0x11, 0x3c, 0xe3, 0x57, 0x0c, 0x3e, 0x44, 0x9c, 0xec, 0xb9, 0xa1, 0x6e, 0x7b, 0x3e, 0x92, 0x96, 0xa8, 0x3d, 0x73, 0x52, 0x14, 0x3e, 0x44, 0xb7, 0x07, 0x3e, 0x54, 0xf9, 0x21, 0x3c, 0xf2, 0x33, 0xa1, 0xbd, 0xec, 0xd8, 0xa2, 0xbd, 0x7f, 0x26, 0xd4, 0xbd, 0xf8, 0x64, 0x3c, 0xbe, 0xce, 0x3e, 0xe6, 0xbb, 0x1a, 0x1c, 0x0b, 0x3d, 0xa0, 0x2d, 0x1d, 0xbe, 0x2d, 0x24, 0x30, 0xbe, 0x71, 0xde, 0x76, 0x3c, 0xd6, 0xe1, 0x6b, 0x3c, 0x5d, 0x05, 0xe4, 0xbd, 0xb6, 0x35, 0xfc, 0xbd, 0x9d, 0xb7, 0xe4, 0xbb, 0xbb, 0xde, 0x38, 0xbe, 0xd9, 0x11, 0xd5, 0xbd, 0x42, 0x3c, 0x53, 0xbe, 0x89, 0xc0, 0xd3, 0xbd, 0x6b, 0x45, 0xee, 0xbd, 0x7f, 0x4b, 0xae, 0xbc, 0x0c, 0xfe, 0x3a, 0xbe, 0x99, 0x36, 0xdb, 0xbd, 0xba, 0x26, 0x2b, 0xbe, 0x94, 0xc6, 0x83, 0x3d, 0x0f, 0xe3, 0x5f, 0x3d, 0x2d, 0x43, 0x3a, 0x3d, 0x49, 0xd2, 0x3d, 0x3d, 0xe8, 0x18, 0x42, 0x3e, 0xc2, 0xbc, 0x90, 0xbd, 0x04, 0x22, 0x0b, 0x3e, 0x75, 0xc4, 0x76, 0xbd, 0x3b, 0x84, 0xeb, 0x3c, 0xd3, 0x93, 0x85, 0x3c, 0xc8, 0x47, 0x28, 0x3c, 0x74, 0x9f, 0x5d, 0xbb, 0xda, 0xdf, 0x13, 0x3e, 0x74, 0xc3, 0x74, 0xbc, 0x20, 0x44, 0x60, 0x3d, 0x97, 0x68, 0x45, 0x3d, 0x30, 0xa9, 0x05, 0x3e, 0x56, 0x30, 0x85, 0xbd, 0xdc, 0x06, 0xa3, 0xbc, 0xc8, 0x8b, 0x5e, 0xbd, 0x42, 0xd9, 0x27, 0xbd, 0x2a, 0x79, 0x8d, 0xbd, 0x2f, 0x86, 0xcf, 0xbd, 0xee, 0x30, 0x9c, 0x3c, 0x70, 0x41, 0x12, 0xbe, 0xad, 0xe0, 0xe8, 0xbc, 0x4d, 0x37, 0xc5, 0xbd, 0x94, 0xca, 0xbc, 0x3d, 0x06, 0x53, 0xd4, 0x3d, 0x32, 0xdf, 0x30, 0x3e, 0x6c, 0x88, 0x70, 0xbd, 0xfc, 0xab, 0x10, 0xbd, 0xff, 0x8f, 0x99, 0xbd, 0x74, 0x8e, 0xfe, 0x3b, 0x71, 0xc0, 0xb4, 0xbd, 0x84, 0x31, 0x90, 0x3c, 0x60, 0x93, 0x4f, 0xbc, 0x6d, 0x1b, 0x5f, 0xbd, 0xc1, 0x99, 0xef, 0xbd, 0x1d, 0x32, 0x6c, 0x3d, 0xf2, 0xc3, 0xc8, 0xbb, 0x97, 0xee, 0x30, 0x3d, 0xc6, 0xb2, 0x99, 0x3a, 0xea, 0x2a, 0xcc, 0x3d, 0x58, 0xec, 0xd7, 0x3d, 0xb8, 0x1c, 0xee, 0x3d, 0x4e, 0xa3, 0x2c, 0x3d, 0x14, 0xcb, 0xe9, 0x3d, 0x22, 0xe3, 0xc6, 0x3d, 0xa4, 0x50, 0x68, 0x3d, 0xb0, 0xb2, 0x39, 0x3e, 0xea, 0xff, 0xff, 0xff, 0x04, 0x00, 0x00, 0x00, 0x08, 0x00, 0x00, 0x00, 0xff, 0xff, 0xff, 0xff, 0x40, 0x01, 0x00, 0x00, 0x00, 0x00, 0x06, 0x00, 0x08, 0x00, 0x04, 0x00, 0x06, 0x00, 0x00, 0x00, 0x04, 0x00, 0x00, 0x00, 0x04, 0x00, 0x00, 0x00, 0xd3, 0xd5, 0x00, 0x3d, 0x24, 0xfa, 0xff, 0xff, 0x28, 0xfa, 0xff, 0xff, 0x0f, 0x00, 0x00, 0x00, 0x4d, 0x4c, 0x49, 0x52, 0x20, 0x43, 0x6f, 0x6e, 0x76, 0x65, 0x72, 0x74, 0x65, 0x64, 0x2e, 0x00, 0x01, 0x00, 0x00, 0x00, 0x14, 0x00, 0x00, 0x00, 0x00, 0x00, 0x0e, 0x00, 0x18, 0x00, 0x04, 0x00, 0x08, 0x00, 0x0c, 0x00, 0x10, 0x00, 0x14, 0x00, 0x0e, 0x00, 0x00, 0x00, 0x84, 0x01, 0x00, 0x00, 0x78, 0x01, 0x00, 0x00, 0x6c, 0x01, 0x00, 0x00, 0x14, 0x00, 0x00, 0x00, 0x04, 0x00, 0x00, 0x00, 0x04, 0x00, 0x00, 0x00, 0x6d, 0x61, 0x69, 0x6e, 0x00, 0x00, 0x00, 0x00, 0x05, 0x00, 0x00, 0x00, 0x04, 0x01, 0x00, 0x00, 0xa4, 0x00, 0x00, 0x00, 0x6c, 0x00, 0x00, 0x00, 0x28, 0x00, 0x00, 0x00, 0x04, 0x00, 0x00, 0x00, 0xaa, 0xff, 0xff, 0xff, 0x04, 0x00, 0x00, 0x00, 0x10, 0x00, 0x00, 0x00, 0x04, 0x00, 0x00, 0x00, 0x01, 0x00, 0x00, 0x00, 0x0c, 0x00, 0x00, 0x00, 0x01, 0x00, 0x00, 0x00, 0x0b, 0x00, 0x00, 0x00, 0x9a, 0xff, 0xff, 0xff, 0x00, 0x00, 0x00, 0x08, 0x03, 0x00, 0x00, 0x00, 0x18, 0x00, 0x00, 0x00, 0x0c, 0x00, 0x00, 0x00, 0x04, 0x00, 0x00, 0x00, 0xcc, 0xfa, 0xff, 0xff, 0x01, 0x00, 0x00, 0x00, 0x0b, 0x00, 0x00, 0x00, 0x03, 0x00, 0x00, 0x00, 0x0a, 0x00, 0x00, 0x00, 0x03, 0x00, 0x00, 0x00, 0x01, 0x00, 0x00, 0x00, 0x00, 0x00, 0x0a, 0x00, 0x10, 0x00, 0x04, 0x00, 0x08, 0x00, 0x0c, 0x00, 0x0a, 0x00, 0x00, 0x00, 0x02, 0x00, 0x00, 0x00, 0x10, 0x00, 0x00, 0x00, 0x04, 0x00, 0x00, 0x00, 0x01, 0x00, 0x00, 0x00, 0x0a, 0x00, 0x00, 0x00, 0x02, 0x00, 0x00, 0x00, 0x09, 0x00, 0x00, 0x00, 0x02, 0x00, 0x00, 0x00, 0x00, 0x00, 0x0e, 0x00, 0x18, 0x00, 0x08, 0x00, 0x0c, 0x00, 0x10, 0x00, 0x07, 0x00, 0x14, 0x00, 0x0e, 0x00, 0x00, 0x00, 0x00, 0x00, 0x00, 0x01, 0x01, 0x00, 0x00, 0x00, 0x30, 0x00, 0x00, 0x00, 0x24, 0x00, 0x00, 0x00, 0x10, 0x00, 0x00, 0x00, 0x0c, 0x00, 0x10, 0x00, 0x06, 0x00, 0x08, 0x00, 0x0c, 0x00, 0x07, 0x00, 0x0c, 0x00, 0x00, 0x00, 0x00, 0x00, 0x01, 0x01, 0x01, 0x00, 0x00, 0x00, 0x01, 0x00, 0x00, 0x00, 0x01, 0x00, 0x00, 0x00, 0x09, 0x00, 0x00, 0x00, 0x03, 0x00, 0x00, 0x00, 0x08, 0x00, 0x00, 0x00, 0x06, 0x00, 0x00, 0x00, 0x07, 0x00, 0x00, 0x00, 0x00, 0x00, 0x0e, 0x00, 0x14, 0x00, 0x00, 0x00, 0x08, 0x00, 0x0c, 0x00, 0x07, 0x00, 0x10, 0x00, 0x0e, 0x00, 0x00, 0x00, 0x00, 0x00, 0x00, 0x02, 0x34, 0x00, 0x00, 0x00, 0x28, 0x00, 0x00, 0x00, 0x10, 0x00, 0x00, 0x00, 0x0c, 0x00, 0x14, 0x00, 0x07, 0x00, 0x08, 0x00, 0x0c, 0x00, 0x10, 0x00, 0x0c, 0x00, 0x00, 0x00, 0x00, 0x00, 0x00, 0x01, 0x01, 0x00, 0x00, 0x00, 0x01, 0x00, 0x00, 0x00, 0x01, 0x00, 0x00, 0x00, 0x01, 0x00, 0x00, 0x00, 0x08, 0x00, 0x00, 0x00, 0x03, 0x00, 0x00, 0x00, 0x00, 0x00, 0x00, 0x00, 0x05, 0x00, 0x00, 0x00, 0x04, 0x00, 0x00, 0x00, 0x01, 0x00, 0x00, 0x00, 0x0c, 0x00, 0x00, 0x00, 0x01, 0x00, 0x00, 0x00, 0x00, 0x00, 0x00, 0x00, 0x0d, 0x00, 0x00, 0x00, 0x08, 0x04, 0x00, 0x00, 0xa0, 0x03, 0x00, 0x00, 0x54, 0x03, 0x00, 0x00, 0xf8, 0x02, 0x00, 0x00, 0x94, 0x02, 0x00, 0x00, 0x24, 0x02, 0x00, 0x00, 0xbc, 0x01, 0x00, 0x00, 0x84, 0x01, 0x00, 0x00, 0x14, 0x01, 0x00, 0x00, 0xd4, 0x00, 0x00, 0x00, 0x88, 0x00, 0x00, 0x00, 0x3c, 0x00, 0x00, 0x00, 0x04, 0x00, 0x00, 0x00, 0x3a, 0xfc, 0xff, 0xff, 0x24, 0x00, 0x00, 0x00, 0x0d, 0x00, 0x00, 0x00, 0x0c, 0x00, 0x00, 0x00, 0x04, 0x00, 0x00, 0x00, 0x2c, 0xfc, 0xff, 0xff, 0x08, 0x00, 0x00, 0x00, 0x49, 0x64, 0x65, 0x6e, 0x74, 0x69, 0x74, 0x79, 0x00, 0x00, 0x00, 0x00, 0x02, 0x00, 0x00, 0x00, 0x01, 0x00, 0x00, 0x00, 0x01, 0x00, 0x00, 0x00, 0x6e, 0xfc, 0xff, 0xff, 0x38, 0x00, 0x00, 0x00, 0x0c, 0x00, 0x00, 0x00, 0x0c, 0x00, 0x00, 0x00, 0x04, 0x00, 0x00, 0x00, 0x60, 0xfc, 0xff, 0xff, 0x1d, 0x00, 0x00, 0x00, 0x73, 0x65, 0x71, 0x75, 0x65, 0x6e, 0x74, 0x69, 0x61, 0x6c, 0x5f, 0x38, 0x2f, 0x64, 0x65, 0x6e, 0x73, 0x65, 0x5f, 0x31, 0x36, 0x2f, 0x42, 0x69, 0x61, 0x73, 0x41, 0x64, 0x64, 0x00, 0x00, 0x00, 0x02, 0x00, 0x00, 0x00, 0x01, 0x00, 0x00, 0x00, 0x01, 0x00, 0x00, 0x00, 0xb6, 0xfc, 0xff, 0xff, 0x38, 0x00, 0x00, 0x00, 0x0b, 0x00, 0x00, 0x00, 0x0c, 0x00, 0x00, 0x00, 0x04, 0x00, 0x00, 0x00, 0xa8, 0xfc, 0xff, 0xff, 0x1e, 0x00, 0x00, 0x00, 0x73, 0x65, 0x71, 0x75, 0x65, 0x6e, 0x74, 0x69, 0x61, 0x6c, 0x5f, 0x38, 0x2f, 0x66, 0x6c, 0x61, 0x74, 0x74, 0x65, 0x6e, 0x5f, 0x34, 0x2f, 0x52, 0x65, 0x73, 0x68, 0x61, 0x70, 0x65, 0x00, 0x00, 0x02, 0x00, 0x00, 0x00, 0x01, 0x00, 0x00, 0x00, 0x40, 0x01, 0x00, 0x00, 0xfe, 0xfc, 0xff, 0xff, 0x24, 0x00, 0x00, 0x00, 0x0a, 0x00, 0x00, 0x00, 0x0c, 0x00, 0x00, 0x00, 0x04, 0x00, 0x00, 0x00, 0xf0, 0xfc, 0xff, 0xff, 0x0b, 0x00, 0x00, 0x00, 0x74, 0x66, 0x6c, 0x2e, 0x63, 0x6f, 0x6e, 0x76, 0x5f, 0x32, 0x64, 0x00, 0x04, 0x00, 0x00, 0x00, 0x01, 0x00, 0x00, 0x00, 0x08, 0x00, 0x00, 0x00, 0x08, 0x00, 0x00, 0x00, 0x05, 0x00, 0x00, 0x00, 0x3a, 0xfd, 0xff, 0xff, 0x54, 0x00, 0x00, 0x00, 0x09, 0x00, 0x00, 0x00, 0x0c, 0x00, 0x00, 0x00, 0x04, 0x00, 0x00, 0x00, 0x2c, 0xfd, 0xff, 0xff, 0x3b, 0x00, 0x00, 0x00, 0x73, 0x65, 0x71, 0x75, 0x65, 0x6e, 0x74, 0x69, 0x61, 0x6c, 0x5f, 0x38, 0x2f, 0x73, 0x65, 0x70, 0x61, 0x72, 0x61, 0x62, 0x6c, 0x65, 0x5f, 0x63, 0x6f, 0x6e, 0x76, 0x32, 0x64, 0x5f, 0x34, 0x2f, 0x73, 0x65, 0x70, 0x61, 0x72, 0x61, 0x62, 0x6c, 0x65, 0x5f, 0x63, 0x6f, 0x6e, 0x76, 0x32, 0x64, 0x2f, 0x64, 0x65, 0x70, 0x74, 0x68, 0x77, 0x69, 0x73, 0x65, 0x32, 0x00, 0x04, 0x00, 0x00, 0x00, 0x01, 0x00, 0x00, 0x00, 0x08, 0x00, 0x00, 0x00, 0x08, 0x00, 0x00, 0x00, 0x01, 0x00, 0x00, 0x00, 0xa6, 0xfd, 0xff, 0xff, 0x28, 0x00, 0x00, 0x00, 0x08, 0x00, 0x00, 0x00, 0x0c, 0x00, 0x00, 0x00, 0x04, 0x00, 0x00, 0x00, 0x98, 0xfd, 0xff, 0xff, 0x0c, 0x00, 0x00, 0x00, 0x73, 0x74, 0x64, 0x2e, 0x63, 0x6f, 0x6e, 0x73, 0x74, 0x61, 0x6e, 0x74, 0x00, 0x00, 0x00, 0x00, 0x01, 0x00, 0x00, 0x00, 0x05, 0x00, 0x00, 0x00, 0xda, 0xfd, 0xff, 0xff, 0x4c, 0x00, 0x00, 0x00, 0x07, 0x00, 0x00, 0x00, 0x0c, 0x00, 0x00, 0x00, 0x04, 0x00, 0x00, 0x00, 0xcc, 0xfd, 0xff, 0xff, 0x30, 0x00, 0x00, 0x00, 0x73, 0x65, 0x71, 0x75, 0x65, 0x6e, 0x74, 0x69, 0x61, 0x6c, 0x5f, 0x38, 0x2f, 0x73, 0x65, 0x70, 0x61, 0x72, 0x61, 0x62, 0x6c, 0x65, 0x5f, 0x63, 0x6f, 0x6e, 0x76, 0x32, 0x64, 0x5f, 0x34, 0x2f, 0x73, 0x65, 0x70, 0x61, 0x72, 0x61, 0x62, 0x6c, 0x65, 0x5f, 0x63, 0x6f, 0x6e, 0x76, 0x32, 0x64, 0x00, 0x00, 0x00, 0x00, 0x04, 0x00, 0x00, 0x00, 0x05, 0x00, 0x00, 0x00, 0x01, 0x00, 0x00, 0x00, 0x01, 0x00, 0x00, 0x00, 0x01, 0x00, 0x00, 0x00, 0x3e, 0xfe, 0xff, 0xff, 0x54, 0x00, 0x00, 0x00, 0x06, 0x00, 0x00, 0x00, 0x0c, 0x00, 0x00, 0x00, 0x04, 0x00, 0x00, 0x00, 0x30, 0xfe, 0xff, 0xff, 0x3b, 0x00, 0x00, 0x00, 0x73, 0x65, 0x71, 0x75, 0x65, 0x6e, 0x74, 0x69, 0x61, 0x6c, 0x5f, 0x38, 0x2f, 0x73, 0x65, 0x70, 0x61, 0x72, 0x61, 0x62, 0x6c, 0x65, 0x5f, 0x63, 0x6f, 0x6e, 0x76, 0x32, 0x64, 0x5f, 0x34, 0x2f, 0x73, 0x65, 0x70, 0x61, 0x72, 0x61, 0x62, 0x6c, 0x65, 0x5f, 0x63, 0x6f, 0x6e, 0x76, 0x32, 0x64, 0x2f, 0x64, 0x65, 0x70, 0x74, 0x68, 0x77, 0x69, 0x73, 0x65, 0x31, 0x00, 0x04, 0x00, 0x00, 0x00, 0x01, 0x00, 0x00, 0x00, 0x03, 0x00, 0x00, 0x00, 0x03, 0x00, 0x00, 0x00, 0x01, 0x00, 0x00, 0x00, 0xaa, 0xfe, 0xff, 0xff, 0x54, 0x00, 0x00, 0x00, 0x05, 0x00, 0x00, 0x00, 0x0c, 0x00, 0x00, 0x00, 0x04, 0x00, 0x00, 0x00, 0x9c, 0xfe, 0xff, 0xff, 0x3a, 0x00, 0x00, 0x00, 0x73, 0x65, 0x71, 0x75, 0x65, 0x6e, 0x74, 0x69, 0x61, 0x6c, 0x5f, 0x38, 0x2f, 0x73, 0x65, 0x70, 0x61, 0x72, 0x61, 0x62, 0x6c, 0x65, 0x5f, 0x63, 0x6f, 0x6e, 0x76, 0x32, 0x64, 0x5f, 0x34, 0x2f, 0x73, 0x65, 0x70, 0x61, 0x72, 0x61, 0x62, 0x6c, 0x65, 0x5f, 0x63, 0x6f, 0x6e, 0x76, 0x32, 0x64, 0x2f, 0x64, 0x65, 0x70, 0x74, 0x68, 0x77, 0x69, 0x73, 0x65, 0x00, 0x00, 0x01, 0x00, 0x00, 0x00, 0x01, 0x00, 0x00, 0x00, 0x0a, 0xff, 0xff, 0xff, 0x38, 0x00, 0x00, 0x00, 0x04, 0x00, 0x00, 0x00, 0x0c, 0x00, 0x00, 0x00, 0x04, 0x00, 0x00, 0x00, 0xfc, 0xfe, 0xff, 0xff, 0x1c, 0x00, 0x00, 0x00, 0x73, 0x65, 0x71, 0x75, 0x65, 0x6e, 0x74, 0x69, 0x61, 0x6c, 0x5f, 0x38, 0x2f, 0x64, 0x65, 0x6e, 0x73, 0x65, 0x5f, 0x31, 0x36, 0x2f, 0x4d, 0x61, 0x74, 0x4d, 0x75, 0x6c, 0x00, 0x00, 0x00, 0x00, 0x02, 0x00, 0x00, 0x00, 0x01, 0x00, 0x00, 0x00, 0x40, 0x01, 0x00, 0x00, 0x00, 0x00, 0x0e, 0x00, 0x18, 0x00, 0x08, 0x00, 0x07, 0x00, 0x0c, 0x00, 0x10, 0x00, 0x14, 0x00, 0x0e, 0x00, 0x00, 0x00, 0x00, 0x00, 0x00, 0x02, 0x38, 0x00, 0x00, 0x00, 0x03, 0x00, 0x00, 0x00, 0x0c, 0x00, 0x00, 0x00, 0x04, 0x00, 0x00, 0x00, 0x58, 0xff, 0xff, 0xff, 0x1c, 0x00, 0x00, 0x00, 0x73, 0x65, 0x71, 0x75, 0x65, 0x6e, 0x74, 0x69, 0x61, 0x6c, 0x5f, 0x38, 0x2f, 0x66, 0x6c, 0x61, 0x74, 0x74, 0x65, 0x6e, 0x5f, 0x34, 0x2f, 0x43, 0x6f, 0x6e, 0x73, 0x74, 0x00, 0x00, 0x00, 0x00, 0x01, 0x00, 0x00, 0x00, 0x02, 0x00, 0x00, 0x00, 0xaa, 0xff, 0xff, 0xff, 0x48, 0x00, 0x00, 0x00, 0x02, 0x00, 0x00, 0x00, 0x0c, 0x00, 0x00, 0x00, 0x04, 0x00, 0x00, 0x00, 0x9c, 0xff, 0xff, 0xff, 0x2c, 0x00, 0x00, 0x00, 0x73, 0x65, 0x71, 0x75, 0x65, 0x6e, 0x74, 0x69, 0x61, 0x6c, 0x5f, 0x38, 0x2f, 0x64, 0x65, 0x6e, 0x73, 0x65, 0x5f, 0x31, 0x36, 0x2f, 0x42, 0x69, 0x61, 0x73, 0x41, 0x64, 0x64, 0x2f, 0x52, 0x65, 0x61, 0x64, 0x56, 0x61, 0x72, 0x69, 0x61, 0x62, 0x6c, 0x65, 0x4f, 0x70, 0x00, 0x00, 0x00, 0x00, 0x01, 0x00, 0x00, 0x00, 0x01, 0x00, 0x00, 0x00, 0x00, 0x00, 0x0e, 0x00, 0x14, 0x00, 0x04, 0x00, 0x00, 0x00, 0x08, 0x00, 0x0c, 0x00, 0x10, 0x00, 0x0e, 0x00, 0x00, 0x00, 0x38, 0x00, 0x00, 0x00, 0x01, 0x00, 0x00, 0x00, 0x10, 0x00, 0x00, 0x00, 0x08, 0x00, 0x00, 0x00, 0x04, 0x00, 0x04, 0x00, 0x04, 0x00, 0x00, 0x00, 0x18, 0x00, 0x00, 0x00, 0x73, 0x65, 0x70, 0x61, 0x72, 0x61, 0x62, 0x6c, 0x65, 0x5f, 0x63, 0x6f, 0x6e, 0x76, 0x32, 0x64, 0x5f, 0x34, 0x5f, 0x69, 0x6e, 0x70, 0x75, 0x74, 0x00, 0x00, 0x00, 0x00, 0x04, 0x00, 0x00, 0x00, 0x01, 0x00, 0x00, 0x00, 0x0a, 0x00, 0x00, 0x00, 0x0a, 0x00, 0x00, 0x00, 0x01, 0x00, 0x00, 0x00, 0x05, 0x00, 0x00, 0x00, 0x54, 0x00, 0x00, 0x00, 0x3c, 0x00, 0x00, 0x00, 0x28, 0x00, 0x00, 0x00, 0x10, 0x00, 0x00, 0x00, 0x04, 0x00, 0x00, 0x00, 0xc6, 0xff, 0xff, 0xff, 0x00, 0x00, 0x00, 0x0e, 0xe6, 0xff, 0xff, 0xff, 0x00, 0x00, 0x00, 0x09, 0x03, 0x00, 0x00, 0x00, 0x00, 0x00, 0x06, 0x00, 0x06, 0x00, 0x05, 0x00, 0x06, 0x00, 0x00, 0x00, 0x00, 0x16, 0x0a, 0x00, 0x0e, 0x00, 0x07, 0x00, 0x00, 0x00, 0x08, 0x00, 0x0a, 0x00, 0x00, 0x00, 0x00, 0x00, 0x00, 0x03, 0x02, 0x00, 0x00, 0x00, 0x00, 0x00, 0x06, 0x00, 0x08, 0x00, 0x07, 0x00, 0x06, 0x00, 0x00, 0x00, 0x00, 0x00, 0x00, 0x04};
const int model_data_len = 3232;

#define NUMBER_OF_INPUTS 100
#define NUMBER_OF_OUTPUTS 1
