
#ifdef __has_attribute
#define HAVE_ATTRIBUTE(x) __has_attribute(x)
#else
#define HAVE_ATTRIBUTE(x) 0
#endif
#if HAVE_ATTRIBUTE(aligned) || (defined(__GNUC__) && !defined(__clang__))
#define DATA_ALIGN_ATTRIBUTE __attribute__((aligned(4)))
#else
#define DATA_ALIGN_ATTRIBUTE
#endif

const unsigned char model_data[] DATA_ALIGN_ATTRIBUTE = {0x08, 0x00, 0x00, 0x00, 0x54, 0x46, 0x4c, 0x33, 0x4e, 0xfd, 0xff, 0xff, 0x03, 0x00, 0x00, 0x00, 0x40, 0x07, 0x00, 0x00, 0x9c, 0x02, 0x00, 0x00, 0x84, 0x02, 0x00, 0x00, 0x04, 0x00, 0x00, 0x00, 0x0c, 0x00, 0x00, 0x00, 0x74, 0x02, 0x00, 0x00, 0x6c, 0x02, 0x00, 0x00, 0x40, 0x02, 0x00, 0x00, 0x0c, 0x02, 0x00, 0x00, 0xf8, 0x01, 0x00, 0x00, 0x24, 0x01, 0x00, 0x00, 0x50, 0x00, 0x00, 0x00, 0x24, 0x00, 0x00, 0x00, 0x1c, 0x00, 0x00, 0x00, 0x14, 0x00, 0x00, 0x00, 0x0c, 0x00, 0x00, 0x00, 0x04, 0x00, 0x00, 0x00, 0x2c, 0xf9, 0xff, 0xff, 0x30, 0xf9, 0xff, 0xff, 0x34, 0xf9, 0xff, 0xff, 0x38, 0xf9, 0xff, 0xff, 0xfe, 0xfd, 0xff, 0xff, 0x04, 0x00, 0x00, 0x00, 0x1c, 0x00, 0x00, 0x00, 0x03, 0x01, 0x09, 0x3f, 0xec, 0xdc, 0x4c, 0x3f, 0x60, 0x8c, 0x4a, 0xbf, 0x29, 0x29, 0x64, 0x3f, 0x5d, 0x9c, 0x82, 0x3e, 0x79, 0x7f, 0x41, 0xbf, 0x00, 0x67, 0x4c, 0x3f, 0x26, 0xfe, 0xff, 0xff, 0x04, 0x00, 0x00, 0x00, 0xc4, 0x00, 0x00, 0x00, 0x99, 0x13, 0x67, 0x3d, 0x61, 0x89, 0x1c, 0xbf, 0x54, 0xa1, 0x7e, 0x3e, 0x1c, 0xc4, 0xa2, 0x3e, 0x95, 0xd5, 0x68, 0x3d, 0xdf, 0x38, 0x6a, 0xbe, 0xb3, 0xed, 0x05, 0x3f, 0xeb, 0x7a, 0xd0, 0x3e, 0x4b, 0x79, 0x03, 0x3f, 0x7f, 0xa4, 0x18, 0xbf, 0xbc, 0x0c, 0x32, 0xbe, 0x2b, 0x83, 0x2b, 0xbf, 0x6e, 0x5a, 0xbd, 0xbd, 0x9b, 0xd2, 0xd3, 0x3e, 0xbb, 0xec, 0xf7, 0xbe, 0xc3, 0x93, 0x22, 0x3e, 0x14, 0xc9, 0x05, 0x3e, 0xe6, 0xec, 0x48, 0xba, 0x87, 0x8f, 0xcf, 0x3e, 0x28, 0xd3, 0xaa, 0xbe, 0xc0, 0x85, 0x0a, 0xbf, 0x63, 0xee, 0x28, 0xbf, 0xc1, 0x6a, 0x0a, 0x3f, 0x06, 0xaf, 0x29, 0xbf, 0x74, 0x94, 0x8e, 0x3e, 0x6d, 0x8e, 0x16, 0xbf, 0xce, 0xd2, 0x86, 0xbd, 0x0f, 0xc4, 0x03, 0xbf, 0x94, 0xb9, 0x8e, 0x3c, 0xfb, 0x45, 0xeb, 0x3d, 0xb8, 0xb1, 0x72, 0xbd, 0x9d, 0x76, 0x87, 0x3e, 0xd5, 0xe7, 0x29, 0xbe, 0x2b, 0xb5, 0x03, 0x3f, 0xf2, 0x3a, 0x50, 0x3d, 0x9d, 0x5f, 0xf7, 0x3d, 0x5d, 0x46, 0x0d, 0x3f, 0x80, 0x0a, 0x9f, 0xbe, 0x9e, 0x2b, 0xef, 0x3e, 0x23, 0x2b, 0x55, 0x3e, 0x0c, 0x65, 0x57, 0xbe, 0xd7, 0xed, 0x6b, 0x3e, 0x13, 0xa3, 0xd2, 0x3e, 0xa9, 0xe5, 0xf0, 0xbe, 0x32, 0x50, 0x44, 0x3e, 0xc1, 0xd6, 0x70, 0x3e, 0xab, 0xaf, 0x15, 0x3d, 0x53, 0x56, 0xff, 0x3e, 0x80, 0x56, 0x06, 0xbd, 0xf6, 0xfe, 0xff, 0xff, 0x04, 0x00, 0x00, 0x00, 0xc4, 0x00, 0x00, 0x00, 0x65, 0x6b, 0x9f, 0xbd, 0x93, 0x8f, 0x24, 0xbe, 0x3d, 0xa3, 0xa7, 0x3d, 0x67, 0x95, 0x0c, 0x3f, 0x71, 0xe7, 0x13, 0xbf, 0xc6, 0x53, 0xaa, 0x3e, 0xee, 0xc8, 0x12, 0xbf, 0x8e, 0x50, 0x06, 0xbf, 0xf4, 0x72, 0xfa, 0xbe, 0xda, 0x3f, 0x1d, 0x3f, 0x94, 0x46, 0x2d, 0xbe, 0x77, 0xae, 0x17, 0xbf, 0x78, 0x18, 0x4f, 0xbe, 0x18, 0xea, 0x3c, 0xbe, 0xb9, 0x27, 0x02, 0x3e, 0x2c, 0x9f, 0xc1, 0xbe, 0xab, 0x07, 0x2a, 0x3f, 0x3c, 0x9c, 0xc7, 0x3c, 0x8f, 0xd5, 0x05, 0xbe, 0xf3, 0x51, 0x15, 0xbf, 0x8a, 0x07, 0x24, 0xbf, 0x3c, 0x76, 0xc4, 0xbd, 0x0c, 0x20, 0x9f, 0xbc, 0xf1, 0xa4, 0xce, 0xbe, 0x13, 0xdf, 0x62, 0x3e, 0x75, 0x83, 0x14, 0x3f, 0xc8, 0xa1, 0x88, 0xbe, 0xa9, 0xab, 0xd5, 0x3e, 0xc3, 0xa3, 0xa8, 0xbe, 0x34, 0xd9, 0xeb, 0xbe, 0xfc, 0x7f, 0x9e, 0xbd, 0x6c, 0xb8, 0x0d, 0xbf, 0x81, 0x9f, 0xd4, 0x3e, 0xf8, 0xc7, 0x12, 0x3f, 0xf2, 0x0d, 0x11, 0xbf, 0x2b, 0x30, 0x46, 0x3e, 0x42, 0xd8, 0x85, 0x3e, 0x9a, 0x53, 0xb8, 0xbe, 0xa3, 0x3c, 0x7e, 0xbe, 0xc8, 0x74, 0xbe, 0x3e, 0x1f, 0x74, 0xd7, 0xbe, 0xbf, 0xa5, 0xb4, 0xbd, 0xa3, 0xc4, 0x0c, 0x3e, 0xa5, 0xd7, 0x0b, 0xbf, 0x94, 0x9d, 0xc1, 0xbd, 0x54, 0xc8, 0xdc, 0x3d, 0xbf, 0x46, 0xf5, 0x3e, 0xe0, 0xed, 0xc1, 0x3d, 0x08, 0x29, 0x8a, 0xbe, 0xc6, 0xff, 0xff, 0xff, 0x04, 0x00, 0x00, 0x00, 0x04, 0x00, 0x00, 0x00, 0x07, 0xd1, 0x57, 0xbd, 0xd6, 0xff, 0xff, 0xff, 0x04, 0x00, 0x00, 0x00, 0x1c, 0x00, 0x00, 0x00, 0xdb, 0x03, 0x75, 0xbd, 0x34, 0x21, 0x68, 0xbd, 0x00, 0xe1, 0x5d, 0x3a, 0x3f, 0xc9, 0xca, 0x3d, 0xca, 0xba, 0x4f, 0xbd, 0x0b, 0xf3, 0x8d, 0x3d, 0x3c, 0x73, 0x17, 0xbd, 0x00, 0x00, 0x06, 0x00, 0x08, 0x00, 0x04, 0x00, 0x06, 0x00, 0x00, 0x00, 0x04, 0x00, 0x00, 0x00, 0x1c, 0x00, 0x00, 0x00, 0xbc, 0x11, 0x49, 0xbd, 0x9e, 0x0c, 0x71, 0x3d, 0xff, 0x02, 0x9a, 0xbd, 0x56, 0x41, 0x64, 0x3c, 0xc9, 0xd5, 0x8b, 0x3d, 0xb5, 0x1f, 0x3c, 0xbd, 0x39, 0x33, 0x8c, 0xbd, 0x6c, 0xfb, 0xff, 0xff, 0x70, 0xfb, 0xff, 0xff, 0x0f, 0x00, 0x00, 0x00, 0x4d, 0x4c, 0x49, 0x52, 0x20, 0x43, 0x6f, 0x6e, 0x76, 0x65, 0x72, 0x74, 0x65, 0x64, 0x2e, 0x00, 0x01, 0x00, 0x00, 0x00, 0x14, 0x00, 0x00, 0x00, 0x00, 0x00, 0x0e, 0x00, 0x18, 0x00, 0x04, 0x00, 0x08, 0x00, 0x0c, 0x00, 0x10, 0x00, 0x14, 0x00, 0x0e, 0x00, 0x00, 0x00, 0x30, 0x01, 0x00, 0x00, 0x24, 0x01, 0x00, 0x00, 0x18, 0x01, 0x00, 0x00, 0x14, 0x00, 0x00, 0x00, 0x04, 0x00, 0x00, 0x00, 0x04, 0x00, 0x00, 0x00, 0x6d, 0x61, 0x69, 0x6e, 0x00, 0x00, 0x00, 0x00, 0x04, 0x00, 0x00, 0x00, 0xc0, 0x00, 0x00, 0x00, 0x78, 0x00, 0x00, 0x00, 0x34, 0x00, 0x00, 0x00, 0x10, 0x00, 0x00, 0x00, 0x00, 0x00, 0x0a, 0x00, 0x10, 0x00, 0x04, 0x00, 0x08, 0x00, 0x0c, 0x00, 0x0a, 0x00, 0x00, 0x00, 0x01, 0x00, 0x00, 0x00, 0x10, 0x00, 0x00, 0x00, 0x04, 0x00, 0x00, 0x00, 0x01, 0x00, 0x00, 0x00, 0x0a, 0x00, 0x00, 0x00, 0x01, 0x00, 0x00, 0x00, 0x09, 0x00, 0x00, 0x00, 0xce, 0xff, 0xff, 0xff, 0x00, 0x00, 0x00, 0x08, 0x18, 0x00, 0x00, 0x00, 0x0c, 0x00, 0x00, 0x00, 0x04, 0x00, 0x00, 0x00, 0x18, 0xfc, 0xff, 0xff, 0x01, 0x00, 0x00, 0x00, 0x09, 0x00, 0x00, 0x00, 0x03, 0x00, 0x00, 0x00, 0x08, 0x00, 0x00, 0x00, 0x06, 0x00, 0x00, 0x00, 0x03, 0x00, 0x00, 0x00, 0x00, 0x00, 0x0e, 0x00, 0x14, 0x00, 0x00, 0x00, 0x08, 0x00, 0x0c, 0x00, 0x07, 0x00, 0x10, 0x00, 0x0e, 0x00, 0x00, 0x00, 0x00, 0x00, 0x00, 0x08, 0x1c, 0x00, 0x00, 0x00, 0x10, 0x00, 0x00, 0x00, 0x04, 0x00, 0x00, 0x00, 0xba, 0xff, 0xff, 0xff, 0x00, 0x00, 0x00, 0x01, 0x01, 0x00, 0x00, 0x00, 0x08, 0x00, 0x00, 0x00, 0x03, 0x00, 0x00, 0x00, 0x07, 0x00, 0x00, 0x00, 0x05, 0x00, 0x00, 0x00, 0x02, 0x00, 0x00, 0x00, 0x00, 0x00, 0x0e, 0x00, 0x16, 0x00, 0x00, 0x00, 0x08, 0x00, 0x0c, 0x00, 0x07, 0x00, 0x10, 0x00, 0x0e, 0x00, 0x00, 0x00, 0x00, 0x00, 0x00, 0x08, 0x24, 0x00, 0x00, 0x00, 0x18, 0x00, 0x00, 0x00, 0x0c, 0x00, 0x00, 0x00, 0x00, 0x00, 0x06, 0x00, 0x08, 0x00, 0x07, 0x00, 0x06, 0x00, 0x00, 0x00, 0x00, 0x00, 0x00, 0x01, 0x01, 0x00, 0x00, 0x00, 0x07, 0x00, 0x00, 0x00, 0x03, 0x00, 0x00, 0x00, 0x00, 0x00, 0x00, 0x00, 0x04, 0x00, 0x00, 0x00, 0x01, 0x00, 0x00, 0x00, 0x01, 0x00, 0x00, 0x00, 0x0a, 0x00, 0x00, 0x00, 0x01, 0x00, 0x00, 0x00, 0x00, 0x00, 0x00, 0x00, 0x0b, 0x00, 0x00, 0x00, 0x14, 0x03, 0x00, 0x00, 0xac, 0x02, 0x00, 0x00, 0x54, 0x02, 0x00, 0x00, 0xfc, 0x01, 0x00, 0x00, 0xb0, 0x01, 0x00, 0x00, 0x64, 0x01, 0x00, 0x00, 0x18, 0x01, 0x00, 0x00, 0xd0, 0x00, 0x00, 0x00, 0x88, 0x00, 0x00, 0x00, 0x3c, 0x00, 0x00, 0x00, 0x04, 0x00, 0x00, 0x00, 0x26, 0xfd, 0xff, 0xff, 0x24, 0x00, 0x00, 0x00, 0x0b, 0x00, 0x00, 0x00, 0x0c, 0x00, 0x00, 0x00, 0x04, 0x00, 0x00, 0x00, 0x18, 0xfd, 0xff, 0xff, 0x08, 0x00, 0x00, 0x00, 0x49, 0x64, 0x65, 0x6e, 0x74, 0x69, 0x74, 0x79, 0x00, 0x00, 0x00, 0x00, 0x02, 0x00, 0x00, 0x00, 0x01, 0x00, 0x00, 0x00, 0x01, 0x00, 0x00, 0x00, 0x5a, 0xfd, 0xff, 0xff, 0x38, 0x00, 0x00, 0x00, 0x0a, 0x00, 0x00, 0x00, 0x0c, 0x00, 0x00, 0x00, 0x04, 0x00, 0x00, 0x00, 0x4c, 0xfd, 0xff, 0xff, 0x1e, 0x00, 0x00, 0x00, 0x73, 0x65, 0x71, 0x75, 0x65, 0x6e, 0x74, 0x69, 0x61, 0x6c, 0x5f, 0x31, 0x31, 0x2f, 0x64, 0x65, 0x6e, 0x73, 0x65, 0x5f, 0x31, 0x35, 0x2f, 0x42, 0x69, 0x61, 0x73, 0x41, 0x64, 0x64, 0x00, 0x00, 0x02, 0x00, 0x00, 0x00, 0x01, 0x00, 0x00, 0x00, 0x01, 0x00, 0x00, 0x00, 0xa2, 0xfd, 0xff, 0xff, 0x34, 0x00, 0x00, 0x00, 0x09, 0x00, 0x00, 0x00, 0x0c, 0x00, 0x00, 0x00, 0x04, 0x00, 0x00, 0x00, 0x94, 0xfd, 0xff, 0xff, 0x1b, 0x00, 0x00, 0x00, 0x73, 0x65, 0x71, 0x75, 0x65, 0x6e, 0x74, 0x69, 0x61, 0x6c, 0x5f, 0x31, 0x31, 0x2f, 0x64, 0x65, 0x6e, 0x73, 0x65, 0x5f, 0x31, 0x34, 0x2f, 0x52, 0x65, 0x6c, 0x75, 0x00, 0x02, 0x00, 0x00, 0x00, 0x01, 0x00, 0x00, 0x00, 0x07, 0x00, 0x00, 0x00, 0xe6, 0xfd, 0xff, 0xff, 0x34, 0x00, 0x00, 0x00, 0x08, 0x00, 0x00, 0x00, 0x0c, 0x00, 0x00, 0x00, 0x04, 0x00, 0x00, 0x00, 0xd8, 0xfd, 0xff, 0xff, 0x1b, 0x00, 0x00, 0x00, 0x73, 0x65, 0x71, 0x75, 0x65, 0x6e, 0x74, 0x69, 0x61, 0x6c, 0x5f, 0x31, 0x31, 0x2f, 0x64, 0x65, 0x6e, 0x73, 0x65, 0x5f, 0x31, 0x33, 0x2f, 0x52, 0x65, 0x6c, 0x75, 0x00, 0x02, 0x00, 0x00, 0x00, 0x01, 0x00, 0x00, 0x00, 0x07, 0x00, 0x00, 0x00, 0x2a, 0xfe, 0xff, 0xff, 0x38, 0x00, 0x00, 0x00, 0x07, 0x00, 0x00, 0x00, 0x0c, 0x00, 0x00, 0x00, 0x04, 0x00, 0x00, 0x00, 0x1c, 0xfe, 0xff, 0xff, 0x1d, 0x00, 0x00, 0x00, 0x73, 0x65, 0x71, 0x75, 0x65, 0x6e, 0x74, 0x69, 0x61, 0x6c, 0x5f, 0x31, 0x31, 0x2f, 0x64, 0x65, 0x6e, 0x73, 0x65, 0x5f, 0x31, 0x35, 0x2f, 0x4d, 0x61, 0x74, 0x4d, 0x75, 0x6c, 0x00, 0x00, 0x00, 0x02, 0x00, 0x00, 0x00, 0x01, 0x00, 0x00, 0x00, 0x07, 0x00, 0x00, 0x00, 0x72, 0xfe, 0xff, 0xff, 0x38, 0x00, 0x00, 0x00, 0x06, 0x00, 0x00, 0x00, 0x0c, 0x00, 0x00, 0x00, 0x04, 0x00, 0x00, 0x00, 0x64, 0xfe, 0xff, 0xff, 0x1d, 0x00, 0x00, 0x00, 0x73, 0x65, 0x71, 0x75, 0x65, 0x6e, 0x74, 0x69, 0x61, 0x6c, 0x5f, 0x31, 0x31, 0x2f, 0x64, 0x65, 0x6e, 0x73, 0x65, 0x5f, 0x31, 0x34, 0x2f, 0x4d, 0x61, 0x74, 0x4d, 0x75, 0x6c, 0x00, 0x00, 0x00, 0x02, 0x00, 0x00, 0x00, 0x07, 0x00, 0x00, 0x00, 0x07, 0x00, 0x00, 0x00, 0xba, 0xfe, 0xff, 0xff, 0x38, 0x00, 0x00, 0x00, 0x05, 0x00, 0x00, 0x00, 0x0c, 0x00, 0x00, 0x00, 0x04, 0x00, 0x00, 0x00, 0xac, 0xfe, 0xff, 0xff, 0x1d, 0x00, 0x00, 0x00, 0x73, 0x65, 0x71, 0x75, 0x65, 0x6e, 0x74, 0x69, 0x61, 0x6c, 0x5f, 0x31, 0x31, 0x2f, 0x64, 0x65, 0x6e, 0x73, 0x65, 0x5f, 0x31, 0x33, 0x2f, 0x4d, 0x61, 0x74, 0x4d, 0x75, 0x6c, 0x00, 0x00, 0x00, 0x02, 0x00, 0x00, 0x00, 0x07, 0x00, 0x00, 0x00, 0x07, 0x00, 0x00, 0x00, 0x02, 0xff, 0xff, 0xff, 0x48, 0x00, 0x00, 0x00, 0x04, 0x00, 0x00, 0x00, 0x0c, 0x00, 0x00, 0x00, 0x04, 0x00, 0x00, 0x00, 0xf4, 0xfe, 0xff, 0xff, 0x2d, 0x00, 0x00, 0x00, 0x73, 0x65, 0x71, 0x75, 0x65, 0x6e, 0x74, 0x69, 0x61, 0x6c, 0x5f, 0x31, 0x31, 0x2f, 0x64, 0x65, 0x6e, 0x73, 0x65, 0x5f, 0x31, 0x35, 0x2f, 0x42, 0x69, 0x61, 0x73, 0x41, 0x64, 0x64, 0x2f, 0x52, 0x65, 0x61, 0x64, 0x56, 0x61, 0x72, 0x69, 0x61, 0x62, 0x6c, 0x65, 0x4f, 0x70, 0x00, 0x00, 0x00, 0x01, 0x00, 0x00, 0x00, 0x01, 0x00, 0x00, 0x00, 0x56, 0xff, 0xff, 0xff, 0x48, 0x00, 0x00, 0x00, 0x03, 0x00, 0x00, 0x00, 0x0c, 0x00, 0x00, 0x00, 0x04, 0x00, 0x00, 0x00, 0x48, 0xff, 0xff, 0xff, 0x2d, 0x00, 0x00, 0x00, 0x73, 0x65, 0x71, 0x75, 0x65, 0x6e, 0x74, 0x69, 0x61, 0x6c, 0x5f, 0x31, 0x31, 0x2f, 0x64, 0x65, 0x6e, 0x73, 0x65, 0x5f, 0x31, 0x34, 0x2f, 0x42, 0x69, 0x61, 0x73, 0x41, 0x64, 0x64, 0x2f, 0x52, 0x65, 0x61, 0x64, 0x56, 0x61, 0x72, 0x69, 0x61, 0x62, 0x6c, 0x65, 0x4f, 0x70, 0x00, 0x00, 0x00, 0x01, 0x00, 0x00, 0x00, 0x07, 0x00, 0x00, 0x00, 0xaa, 0xff, 0xff, 0xff, 0x48, 0x00, 0x00, 0x00, 0x02, 0x00, 0x00, 0x00, 0x0c, 0x00, 0x00, 0x00, 0x04, 0x00, 0x00, 0x00, 0x9c, 0xff, 0xff, 0xff, 0x2d, 0x00, 0x00, 0x00, 0x73, 0x65, 0x71, 0x75, 0x65, 0x6e, 0x74, 0x69, 0x61, 0x6c, 0x5f, 0x31, 0x31, 0x2f, 0x64, 0x65, 0x6e, 0x73, 0x65, 0x5f, 0x31, 0x33, 0x2f, 0x42, 0x69, 0x61, 0x73, 0x41, 0x64, 0x64, 0x2f, 0x52, 0x65, 0x61, 0x64, 0x56, 0x61, 0x72, 0x69, 0x61, 0x62, 0x6c, 0x65, 0x4f, 0x70, 0x00, 0x00, 0x00, 0x01, 0x00, 0x00, 0x00, 0x07, 0x00, 0x00, 0x00, 0x00, 0x00, 0x0e, 0x00, 0x14, 0x00, 0x04, 0x00, 0x00, 0x00, 0x08, 0x00, 0x0c, 0x00, 0x10, 0x00, 0x0e, 0x00, 0x00, 0x00, 0x2c, 0x00, 0x00, 0x00, 0x01, 0x00, 0x00, 0x00, 0x10, 0x00, 0x00, 0x00, 0x08, 0x00, 0x00, 0x00, 0x04, 0x00, 0x04, 0x00, 0x04, 0x00, 0x00, 0x00, 0x0e, 0x00, 0x00, 0x00, 0x64, 0x65, 0x6e, 0x73, 0x65, 0x5f, 0x31, 0x33, 0x5f, 0x69, 0x6e, 0x70, 0x75, 0x74, 0x00, 0x00, 0x02, 0x00, 0x00, 0x00, 0x01, 0x00, 0x00, 0x00, 0x07, 0x00, 0x00, 0x00, 0x02, 0x00, 0x00, 0x00, 0x20, 0x00, 0x00, 0x00, 0x0c, 0x00, 0x00, 0x00, 0x00, 0x00, 0x06, 0x00, 0x06, 0x00, 0x05, 0x00, 0x06, 0x00, 0x00, 0x00, 0x00, 0x0e, 0x0a, 0x00, 0x0c, 0x00, 0x07, 0x00, 0x00, 0x00, 0x08, 0x00, 0x0a, 0x00, 0x00, 0x00, 0x00, 0x00, 0x00, 0x09, 0x03, 0x00, 0x00, 0x00};
const int model_data_len = 1920;

#define NUMBER_OF_INPUTS 100
#define NUMBER_OF_OUTPUTS 1
