
#ifdef __has_attribute
#define HAVE_ATTRIBUTE(x) __has_attribute(x)
#else
#define HAVE_ATTRIBUTE(x) 0
#endif
#if HAVE_ATTRIBUTE(aligned) || (defined(__GNUC__) && !defined(__clang__))
#define DATA_ALIGN_ATTRIBUTE __attribute__((aligned(4)))
#else
#define DATA_ALIGN_ATTRIBUTE
#endif

const unsigned char model_data[] DATA_ALIGN_ATTRIBUTE = {0x08, 0x00, 0x00, 0x00, 0x54, 0x46, 0x4c, 0x33, 0xba, 0xf9, 0xff, 0xff, 0x03, 0x00, 0x00, 0x00, 0x28, 0x0c, 0x00, 0x00, 0x30, 0x06, 0x00, 0x00, 0x18, 0x06, 0x00, 0x00, 0x04, 0x00, 0x00, 0x00, 0x0e, 0x00, 0x00, 0x00, 0x08, 0x06, 0x00, 0x00, 0x00, 0x06, 0x00, 0x00, 0xec, 0x05, 0x00, 0x00, 0xcc, 0x05, 0x00, 0x00, 0xbc, 0x00, 0x00, 0x00, 0xa8, 0x00, 0x00, 0x00, 0x74, 0x00, 0x00, 0x00, 0x50, 0x00, 0x00, 0x00, 0x2c, 0x00, 0x00, 0x00, 0x24, 0x00, 0x00, 0x00, 0x1c, 0x00, 0x00, 0x00, 0x14, 0x00, 0x00, 0x00, 0x0c, 0x00, 0x00, 0x00, 0x04, 0x00, 0x00, 0x00, 0x60, 0xf4, 0xff, 0xff, 0x64, 0xf4, 0xff, 0xff, 0x68, 0xf4, 0xff, 0xff, 0x6c, 0xf4, 0xff, 0xff, 0x70, 0xf4, 0xff, 0xff, 0x5e, 0xfa, 0xff, 0xff, 0x04, 0x00, 0x00, 0x00, 0x14, 0x00, 0x00, 0x00, 0xd2, 0xba, 0xa7, 0x3d, 0x31, 0x17, 0xee, 0xbc, 0x25, 0x12, 0x33, 0x3d, 0xd7, 0x99, 0x71, 0xbc, 0x17, 0x62, 0x8a, 0x3d, 0x7e, 0xfa, 0xff, 0xff, 0x04, 0x00, 0x00, 0x00, 0x14, 0x00, 0x00, 0x00, 0x38, 0x48, 0x55, 0x3f, 0x59, 0x1f, 0x22, 0x3c, 0xdd, 0x44, 0x47, 0x3f, 0xd5, 0xea, 0x26, 0x3b, 0xfb, 0x50, 0x55, 0xbe, 0x9e, 0xfa, 0xff, 0xff, 0x04, 0x00, 0x00, 0x00, 0x24, 0x00, 0x00, 0x00, 0x20, 0x68, 0x65, 0x3e, 0xef, 0x6c, 0x93, 0x3e, 0x97, 0xaa, 0x4b, 0x3e, 0x21, 0xdd, 0x6d, 0x3e, 0xd6, 0xd7, 0x13, 0x3f, 0x3d, 0x6d, 0xa3, 0xbe, 0x0c, 0x98, 0xdd, 0xbd, 0x25, 0x28, 0x61, 0xbe, 0x9b, 0x5b, 0x0f, 0x3f, 0xce, 0xfa, 0xff, 0xff, 0x04, 0x00, 0x00, 0x00, 0x04, 0x00, 0x00, 0x00, 0x00, 0x00, 0x00, 0x00, 0xde, 0xfa, 0xff, 0xff, 0x04, 0x00, 0x00, 0x00, 0x00, 0x05, 0x00, 0x00, 0x7d, 0x8e, 0x80, 0x3d, 0x31, 0xc6, 0x1a, 0x3e, 0xe0, 0xeb, 0xdb, 0xbb, 0xd5, 0x24, 0x30, 0x3c, 0xa0, 0x40, 0x1d, 0x3d, 0x51, 0xc6, 0x47, 0xbd, 0x27, 0x40, 0xd0, 0x3d, 0xee, 0xfb, 0x3f, 0x3e, 0xb2, 0xf9, 0xec, 0x3c, 0xeb, 0x24, 0x0d, 0xbe, 0x5a, 0x4b, 0x06, 0x3e, 0xd9, 0xb1, 0xe6, 0x3c, 0xe4, 0xaf, 0xa6, 0xbc, 0x11, 0x03, 0xd4, 0x3d, 0x16, 0xe6, 0xa9, 0xbd, 0x3c, 0xa6, 0xbf, 0x3d, 0x50, 0x8d, 0x65, 0xbd, 0x51, 0x36, 0xa0, 0x3c, 0xb2, 0xee, 0x8c, 0x3d, 0x26, 0x45, 0x05, 0xbe, 0x88, 0x7c, 0x1d, 0x3d, 0xd4, 0x44, 0x8d, 0x3d, 0x83, 0x66, 0xe6, 0xbc, 0x0c, 0x36, 0xf0, 0xbb, 0x57, 0x26, 0x03, 0xbe, 0x10, 0x3c, 0x4a, 0xbc, 0x44, 0x17, 0x49, 0xbd, 0x0d, 0xce, 0x0a, 0x3e, 0x59, 0xed, 0xa3, 0x3d, 0xd2, 0x3b, 0xae, 0xbc, 0xbd, 0x7f, 0x01, 0x3d, 0xa1, 0x57, 0x54, 0x3d, 0x0d, 0x62, 0x4c, 0x3b, 0xc7, 0x56, 0xeb, 0x3d, 0x8e, 0x96, 0xa9, 0xbb, 0x42, 0x62, 0x3f, 0x3d, 0xc1, 0xe1, 0xa4, 0xbd, 0x49, 0xe6, 0x10, 0x3e, 0x78, 0x31, 0xd3, 0x3b, 0x0c, 0xf2, 0x23, 0x3d, 0x58, 0x45, 0xed, 0x3c, 0x1b, 0xb6, 0xd7, 0xbd, 0xb6, 0x1e, 0x09, 0x3e, 0xf5, 0xa4, 0x4a, 0xbc, 0x97, 0x61, 0xd9, 0xbd, 0xb5, 0xc9, 0x17, 0x3e, 0x0e, 0xe5, 0x14, 0x3d, 0x1f, 0xd3, 0x30, 0x3e, 0xae, 0x74, 0x53, 0xbc, 0x59, 0x28, 0x52, 0xbe, 0x8c, 0xc1, 0x92, 0x3d, 0x6c, 0xa3, 0x96, 0x3c, 0x89, 0x77, 0x43, 0x3e, 0xc1, 0xf1, 0x3f, 0x3c, 0x72, 0xf4, 0x70, 0xbc, 0x7f, 0x3c, 0x19, 0x3e, 0xd2, 0x92, 0x28, 0xbd, 0x6c, 0x41, 0x15, 0x3c, 0xeb, 0xaf, 0xad, 0xbd, 0xa2, 0xca, 0x5d, 0xbe, 0x3f, 0x20, 0x54, 0xbd, 0xae, 0xb0, 0xd2, 0x3c, 0xc4, 0x41, 0x25, 0x3d, 0xcd, 0x76, 0x4d, 0xbd, 0x78, 0x19, 0x33, 0xbd, 0xec, 0x66, 0x18, 0x3e, 0x48, 0x25, 0xc3, 0xbd, 0x3b, 0x8e, 0xfd, 0x3d, 0x11, 0x3d, 0x29, 0xbd, 0x54, 0x50, 0x5f, 0xbe, 0x39, 0x6b, 0x75, 0xbd, 0xa0, 0x8b, 0x68, 0x3d, 0xdc, 0x14, 0x57, 0x3b, 0x97, 0x4b, 0x17, 0xbe, 0x9b, 0xcf, 0x82, 0x3c, 0x16, 0xad, 0x0c, 0x3e, 0x3e, 0xdc, 0x0e, 0x3d, 0xf3, 0xb6, 0x6c, 0x3b, 0xc8, 0x1e, 0x82, 0xbd, 0x41, 0x7c, 0x9f, 0xbd, 0x84, 0x4d, 0xff, 0x3d, 0x49, 0xbf, 0xaa, 0xbd, 0x80, 0xb5, 0x96, 0x3d, 0x3f, 0xba, 0x7c, 0xbc, 0x31, 0x79, 0x1e, 0xbe, 0xf9, 0xdc, 0x4c, 0x3e, 0x3c, 0xb7, 0xbf, 0xbd, 0x4e, 0x40, 0xe8, 0x3c, 0xec, 0x05, 0x07, 0x3d, 0xc0, 0xb5, 0x2a, 0xbe, 0xc2, 0xa3, 0x01, 0x3d, 0x6d, 0x3e, 0x6c, 0xbd, 0x38, 0xab, 0x06, 0x3e, 0x42, 0x69, 0x0b, 0xbe, 0xff, 0x3c, 0x26, 0xbe, 0xaf, 0x9d, 0x2a, 0x3e, 0x25, 0xa8, 0xff, 0x3c, 0xb2, 0xee, 0xb0, 0x3d, 0x6b, 0x14, 0x2c, 0x3c, 0x39, 0xb5, 0xcf, 0xbd, 0x4b, 0xb2, 0xc1, 0x3d, 0x0d, 0x08, 0x95, 0xba, 0x29, 0xf1, 0xfc, 0xbd, 0xb7, 0x43, 0x8d, 0xbd, 0x2d, 0x58, 0x53, 0xbe, 0x97, 0x96, 0x2f, 0x3e, 0xc2, 0x1b, 0x31, 0xbc, 0x3f, 0xab, 0x05, 0xbd, 0xf8, 0x35, 0xa0, 0xbd, 0xf6, 0x04, 0xac, 0x3c, 0xb1, 0x63, 0x27, 0x3e, 0xb9, 0xe6, 0x6b, 0xbd, 0x9f, 0x57, 0x37, 0x3b, 0x7a, 0xf0, 0xf2, 0x3d, 0x81, 0x84, 0xbf, 0xbd, 0x25, 0xc2, 0x47, 0xbd, 0x91, 0xdf, 0xe1, 0x3d, 0x5f, 0xd6, 0xe2, 0xbc, 0x66, 0xcd, 0xba, 0x3d, 0xd2, 0xdd, 0x2d, 0xbe, 0xb8, 0xc8, 0x20, 0x3c, 0xad, 0x06, 0xc9, 0xbd, 0x63, 0x8a, 0xe7, 0xbd, 0xba, 0x9e, 0x6a, 0x3c, 0xdc, 0x86, 0x9c, 0xbd, 0x1a, 0x9c, 0xc6, 0xbd, 0xba, 0x18, 0x87, 0xbd, 0x75, 0x75, 0x7d, 0x3b, 0x0c, 0x04, 0x3b, 0x3d, 0x65, 0xe6, 0x89, 0x3d, 0xcb, 0xb7, 0xf8, 0xbc, 0xdf, 0xd5, 0xf9, 0xbd, 0x4e, 0x78, 0xbc, 0xbd, 0x26, 0x4d, 0x17, 0xbd, 0x9c, 0x8c, 0x26, 0xbe, 0xc3, 0x14, 0xbc, 0x3c, 0xfd, 0x22, 0x9f, 0x3c, 0x84, 0x9b, 0x76, 0x3d, 0xf2, 0xc1, 0x3a, 0xbd, 0x00, 0x3e, 0x72, 0xb7, 0xec, 0x31, 0x44, 0xbd, 0xeb, 0x7a, 0x11, 0x3e, 0xf2, 0x08, 0x43, 0xbd, 0x34, 0x6f, 0x9a, 0x3d, 0x0f, 0x53, 0xf8, 0xbd, 0x5d, 0x1a, 0xa0, 0x3c, 0x65, 0x7b, 0x0f, 0x3e, 0xe1, 0xfd, 0x46, 0x3d, 0xc2, 0xe5, 0x0f, 0xbc, 0x3b, 0x8f, 0xf5, 0xbd, 0xac, 0x0b, 0xa5, 0x3d, 0x68, 0xf0, 0x1b, 0x3e, 0x73, 0xde, 0x77, 0xbd, 0xb6, 0x57, 0x9a, 0x3d, 0x6f, 0xf1, 0x2f, 0xbe, 0x60, 0xf7, 0x28, 0x3c, 0x0a, 0x89, 0xd5, 0xbd, 0x33, 0x11, 0xe5, 0x3d, 0x58, 0x68, 0x10, 0x3d, 0x50, 0x84, 0xad, 0x38, 0x57, 0xec, 0x8f, 0xbb, 0x07, 0x54, 0x74, 0xbc, 0x3e, 0x03, 0x0b, 0xbd, 0x96, 0x8e, 0x4f, 0x3c, 0xc2, 0x1c, 0x18, 0xbd, 0x68, 0x16, 0x7b, 0xbd, 0x86, 0xd0, 0x0a, 0xbd, 0x59, 0xd2, 0xb5, 0xbb, 0xdd, 0x46, 0xa9, 0x3d, 0x84, 0xa0, 0xb4, 0x3d, 0x92, 0xa0, 0xdb, 0xbd, 0x87, 0x84, 0x20, 0xbc, 0x73, 0x63, 0x28, 0xbe, 0xce, 0xc8, 0xa2, 0x3d, 0x7a, 0xec, 0x2a, 0x3c, 0xd1, 0xcf, 0xb1, 0x3d, 0x75, 0x67, 0x06, 0xbe, 0x4c, 0x9c, 0xd2, 0xbd, 0xcf, 0x1d, 0x94, 0x3d, 0xdc, 0xe4, 0x19, 0xbe, 0x28, 0xdc, 0xdb, 0xbd, 0x4f, 0x20, 0x01, 0xbd, 0xe9, 0x63, 0xf0, 0x3d, 0x5c, 0xca, 0xdc, 0x3d, 0x62, 0x0c, 0xee, 0x3c, 0x2e, 0xa0, 0xa3, 0x3b, 0xba, 0xad, 0xef, 0x3d, 0x48, 0x53, 0x58, 0x3d, 0x80, 0x32, 0xa9, 0x3d, 0xed, 0x5b, 0x35, 0xbd, 0x64, 0x49, 0x18, 0x3d, 0x8a, 0xa8, 0xd8, 0xbd, 0x96, 0x79, 0xee, 0x3d, 0xfc, 0x09, 0x3a, 0x3c, 0x8d, 0x71, 0x34, 0xbd, 0x8f, 0x7c, 0x14, 0xbd, 0xc8, 0xa8, 0xa1, 0x3d, 0xce, 0xbe, 0x17, 0x3e, 0xe1, 0x6e, 0xcc, 0x3d, 0x65, 0x61, 0xfe, 0x3c, 0x13, 0xe2, 0xc1, 0x3d, 0xd0, 0xca, 0x03, 0xbe, 0xe7, 0x75, 0x00, 0x3e, 0x69, 0xa4, 0xc2, 0x3d, 0x02, 0xf4, 0x12, 0xbe, 0xdf, 0xe4, 0x8c, 0xbd, 0x75, 0xbb, 0xee, 0x3d, 0x00, 0x50, 0x87, 0x3c, 0xc9, 0x85, 0xd1, 0xbc, 0x20, 0xbd, 0x9d, 0xbd, 0x03, 0xdf, 0x25, 0xbe, 0x4d, 0x5d, 0x9d, 0xbd, 0xf9, 0x9b, 0x48, 0x3d, 0x37, 0x02, 0xea, 0xbc, 0x7e, 0xfc, 0x3b, 0xbe, 0x8a, 0xb5, 0xc7, 0x3d, 0x4d, 0x48, 0x0f, 0x3c, 0x22, 0x71, 0x15, 0xbe, 0xec, 0x6e, 0xf0, 0xbd, 0x27, 0xd1, 0xae, 0x3d, 0xdd, 0x25, 0xcb, 0xbc, 0x54, 0x13, 0xfe, 0xbd, 0xab, 0x54, 0xf1, 0xbd, 0xa4, 0x0a, 0x30, 0x3d, 0x5f, 0x78, 0xbe, 0xbd, 0xf4, 0x04, 0x8f, 0xbd, 0xda, 0xec, 0x3a, 0x3d, 0x60, 0xb6, 0x87, 0x3c, 0x22, 0x88, 0x08, 0xbe, 0x29, 0x58, 0x76, 0xbc, 0x49, 0x89, 0x37, 0xbe, 0xa4, 0xc6, 0xda, 0x3d, 0x67, 0x7a, 0x35, 0xbd, 0x05, 0xb1, 0xab, 0x3d, 0xf5, 0xeb, 0xb3, 0x3d, 0x20, 0x9d, 0x7f, 0x3d, 0xdc, 0x6b, 0xa3, 0x3c, 0x57, 0x14, 0xef, 0x3c, 0x97, 0xe7, 0xa7, 0xbd, 0xfa, 0x16, 0x47, 0xbe, 0xbe, 0x4a, 0x09, 0x3e, 0x6d, 0x08, 0xbd, 0xbd, 0x3c, 0x0a, 0x70, 0xbd, 0x6b, 0xa7, 0xb5, 0x3c, 0x84, 0x2b, 0x0c, 0xbd, 0x64, 0x3e, 0x5d, 0xbd, 0xc8, 0x55, 0xd2, 0x3d, 0xea, 0xdc, 0xc4, 0x3d, 0x52, 0x4c, 0xc2, 0x3d, 0x0a, 0x6e, 0x93, 0xbd, 0x33, 0xea, 0xe8, 0xbc, 0xb7, 0x63, 0x34, 0xbd, 0xb0, 0xb2, 0x5d, 0x3d, 0xc1, 0x70, 0x05, 0xbd, 0xc0, 0x3b, 0x0a, 0x3e, 0x42, 0xc6, 0x43, 0x3d, 0x84, 0x8a, 0x86, 0x3d, 0x50, 0x2e, 0x83, 0xbc, 0x5b, 0x48, 0xc1, 0x3d, 0xdc, 0x40, 0xf8, 0x3d, 0x56, 0xae, 0x9d, 0xbd, 0xbb, 0xe7, 0x8c, 0xbd, 0x32, 0x88, 0x9c, 0xbc, 0x8f, 0x72, 0x9c, 0xbd, 0xc7, 0x6a, 0x88, 0xbd, 0x7a, 0x0a, 0x86, 0xbd, 0xc6, 0x04, 0x5e, 0x3d, 0x6d, 0xad, 0x16, 0xbe, 0x9b, 0x24, 0x08, 0x3d, 0xf0, 0xc8, 0x0e, 0xbd, 0x66, 0x2b, 0x87, 0xbd, 0xca, 0xfd, 0xb2, 0x3d, 0xe5, 0x20, 0xb6, 0xbc, 0x1a, 0x59, 0xee, 0xbd, 0x76, 0x9c, 0x44, 0x3d, 0x50, 0xaf, 0x2b, 0xbe, 0x25, 0x7b, 0x76, 0x3d, 0xd1, 0x9f, 0x08, 0xbe, 0x32, 0xce, 0xd3, 0x3c, 0x7e, 0x7d, 0x03, 0xbe, 0xee, 0x29, 0x0b, 0xbe, 0x5e, 0x48, 0x0c, 0xbe, 0x9a, 0xb4, 0x59, 0x3d, 0x9a, 0xb8, 0x0f, 0x3e, 0xef, 0xcd, 0xef, 0xbd, 0x22, 0x68, 0x13, 0xbe, 0x44, 0x0a, 0xc4, 0xbd, 0x63, 0x90, 0xfa, 0x3d, 0xae, 0x0b, 0xe3, 0xbd, 0x45, 0x96, 0x27, 0x3d, 0x7f, 0x2d, 0x90, 0xbd, 0xff, 0x38, 0x20, 0xbd, 0x54, 0xe6, 0xaf, 0x3d, 0x6a, 0x0d, 0x24, 0xbc, 0x19, 0x67, 0x25, 0x3d, 0x30, 0x8c, 0x52, 0x3d, 0xf3, 0xe2, 0xc8, 0x3d, 0x0d, 0x8b, 0x60, 0xbd, 0x1a, 0x52, 0xa4, 0xbd, 0x9b, 0xa9, 0x60, 0xbd, 0x89, 0x81, 0x84, 0xbd, 0xda, 0xee, 0xaa, 0x38, 0x05, 0x7b, 0xf8, 0xbd, 0xbe, 0x20, 0x14, 0x3c, 0xd7, 0xd9, 0x1d, 0xbd, 0x5a, 0x91, 0x2d, 0xbe, 0x76, 0xba, 0x4c, 0x3d, 0xcc, 0x66, 0x66, 0x3d, 0x38, 0x14, 0x02, 0x3e, 0xcd, 0x86, 0x11, 0x3c, 0x98, 0x0c, 0x92, 0x3d, 0x48, 0x0f, 0x86, 0xbd, 0xbd, 0x02, 0xc7, 0xbd, 0x37, 0x80, 0x62, 0x3d, 0xa8, 0x52, 0x08, 0xbe, 0xc0, 0x10, 0x4e, 0xbc, 0x23, 0x02, 0x96, 0x3d, 0xc4, 0x05, 0x56, 0x3d, 0xda, 0xa8, 0xcc, 0xbd, 0x94, 0x82, 0x15, 0x3d, 0xea, 0xff, 0xff, 0xff, 0x04, 0x00, 0x00, 0x00, 0x08, 0x00, 0x00, 0x00, 0xff, 0xff, 0xff, 0xff, 0x40, 0x01, 0x00, 0x00, 0x00, 0x00, 0x06, 0x00, 0x08, 0x00, 0x04, 0x00, 0x06, 0x00, 0x00, 0x00, 0x04, 0x00, 0x00, 0x00, 0x04, 0x00, 0x00, 0x00, 0x61, 0xb6, 0x4c, 0xbc, 0x2c, 0xfa, 0xff, 0xff, 0x30, 0xfa, 0xff, 0xff, 0x0f, 0x00, 0x00, 0x00, 0x4d, 0x4c, 0x49, 0x52, 0x20, 0x43, 0x6f, 0x6e, 0x76, 0x65, 0x72, 0x74, 0x65, 0x64, 0x2e, 0x00, 0x01, 0x00, 0x00, 0x00, 0x14, 0x00, 0x00, 0x00, 0x00, 0x00, 0x0e, 0x00, 0x18, 0x00, 0x04, 0x00, 0x08, 0x00, 0x0c, 0x00, 0x10, 0x00, 0x14, 0x00, 0x0e, 0x00, 0x00, 0x00, 0x84, 0x01, 0x00, 0x00, 0x78, 0x01, 0x00, 0x00, 0x6c, 0x01, 0x00, 0x00, 0x14, 0x00, 0x00, 0x00, 0x04, 0x00, 0x00, 0x00, 0x04, 0x00, 0x00, 0x00, 0x6d, 0x61, 0x69, 0x6e, 0x00, 0x00, 0x00, 0x00, 0x05, 0x00, 0x00, 0x00, 0x04, 0x01, 0x00, 0x00, 0xa4, 0x00, 0x00, 0x00, 0x6c, 0x00, 0x00, 0x00, 0x28, 0x00, 0x00, 0x00, 0x04, 0x00, 0x00, 0x00, 0xaa, 0xff, 0xff, 0xff, 0x04, 0x00, 0x00, 0x00, 0x10, 0x00, 0x00, 0x00, 0x04, 0x00, 0x00, 0x00, 0x01, 0x00, 0x00, 0x00, 0x0c, 0x00, 0x00, 0x00, 0x01, 0x00, 0x00, 0x00, 0x0b, 0x00, 0x00, 0x00, 0x9a, 0xff, 0xff, 0xff, 0x00, 0x00, 0x00, 0x08, 0x03, 0x00, 0x00, 0x00, 0x18, 0x00, 0x00, 0x00, 0x0c, 0x00, 0x00, 0x00, 0x04, 0x00, 0x00, 0x00, 0xd4, 0xfa, 0xff, 0xff, 0x01, 0x00, 0x00, 0x00, 0x0b, 0x00, 0x00, 0x00, 0x03, 0x00, 0x00, 0x00, 0x0a, 0x00, 0x00, 0x00, 0x03, 0x00, 0x00, 0x00, 0x01, 0x00, 0x00, 0x00, 0x00, 0x00, 0x0a, 0x00, 0x10, 0x00, 0x04, 0x00, 0x08, 0x00, 0x0c, 0x00, 0x0a, 0x00, 0x00, 0x00, 0x02, 0x00, 0x00, 0x00, 0x10, 0x00, 0x00, 0x00, 0x04, 0x00, 0x00, 0x00, 0x01, 0x00, 0x00, 0x00, 0x0a, 0x00, 0x00, 0x00, 0x02, 0x00, 0x00, 0x00, 0x09, 0x00, 0x00, 0x00, 0x02, 0x00, 0x00, 0x00, 0x00, 0x00, 0x0e, 0x00, 0x18, 0x00, 0x08, 0x00, 0x0c, 0x00, 0x10, 0x00, 0x07, 0x00, 0x14, 0x00, 0x0e, 0x00, 0x00, 0x00, 0x00, 0x00, 0x00, 0x01, 0x01, 0x00, 0x00, 0x00, 0x30, 0x00, 0x00, 0x00, 0x24, 0x00, 0x00, 0x00, 0x10, 0x00, 0x00, 0x00, 0x0c, 0x00, 0x10, 0x00, 0x06, 0x00, 0x08, 0x00, 0x0c, 0x00, 0x07, 0x00, 0x0c, 0x00, 0x00, 0x00, 0x00, 0x00, 0x01, 0x01, 0x01, 0x00, 0x00, 0x00, 0x01, 0x00, 0x00, 0x00, 0x01, 0x00, 0x00, 0x00, 0x09, 0x00, 0x00, 0x00, 0x03, 0x00, 0x00, 0x00, 0x08, 0x00, 0x00, 0x00, 0x06, 0x00, 0x00, 0x00, 0x07, 0x00, 0x00, 0x00, 0x00, 0x00, 0x0e, 0x00, 0x14, 0x00, 0x00, 0x00, 0x08, 0x00, 0x0c, 0x00, 0x07, 0x00, 0x10, 0x00, 0x0e, 0x00, 0x00, 0x00, 0x00, 0x00, 0x00, 0x02, 0x34, 0x00, 0x00, 0x00, 0x28, 0x00, 0x00, 0x00, 0x10, 0x00, 0x00, 0x00, 0x0c, 0x00, 0x14, 0x00, 0x07, 0x00, 0x08, 0x00, 0x0c, 0x00, 0x10, 0x00, 0x0c, 0x00, 0x00, 0x00, 0x00, 0x00, 0x00, 0x01, 0x01, 0x00, 0x00, 0x00, 0x01, 0x00, 0x00, 0x00, 0x01, 0x00, 0x00, 0x00, 0x01, 0x00, 0x00, 0x00, 0x08, 0x00, 0x00, 0x00, 0x03, 0x00, 0x00, 0x00, 0x00, 0x00, 0x00, 0x00, 0x05, 0x00, 0x00, 0x00, 0x04, 0x00, 0x00, 0x00, 0x01, 0x00, 0x00, 0x00, 0x0c, 0x00, 0x00, 0x00, 0x01, 0x00, 0x00, 0x00, 0x00, 0x00, 0x00, 0x00, 0x0d, 0x00, 0x00, 0x00, 0x00, 0x04, 0x00, 0x00, 0x9c, 0x03, 0x00, 0x00, 0x50, 0x03, 0x00, 0x00, 0xf8, 0x02, 0x00, 0x00, 0x94, 0x02, 0x00, 0x00, 0x24, 0x02, 0x00, 0x00, 0xbc, 0x01, 0x00, 0x00, 0x84, 0x01, 0x00, 0x00, 0x14, 0x01, 0x00, 0x00, 0xd4, 0x00, 0x00, 0x00, 0x88, 0x00, 0x00, 0x00, 0x3c, 0x00, 0x00, 0x00, 0x04, 0x00, 0x00, 0x00, 0x42, 0xfc, 0xff, 0xff, 0x24, 0x00, 0x00, 0x00, 0x0d, 0x00, 0x00, 0x00, 0x0c, 0x00, 0x00, 0x00, 0x04, 0x00, 0x00, 0x00, 0x34, 0xfc, 0xff, 0xff, 0x08, 0x00, 0x00, 0x00, 0x49, 0x64, 0x65, 0x6e, 0x74, 0x69, 0x74, 0x79, 0x00, 0x00, 0x00, 0x00, 0x02, 0x00, 0x00, 0x00, 0x01, 0x00, 0x00, 0x00, 0x01, 0x00, 0x00, 0x00, 0x76, 0xfc, 0xff, 0xff, 0x38, 0x00, 0x00, 0x00, 0x0c, 0x00, 0x00, 0x00, 0x0c, 0x00, 0x00, 0x00, 0x04, 0x00, 0x00, 0x00, 0x68, 0xfc, 0xff, 0xff, 0x1c, 0x00, 0x00, 0x00, 0x73, 0x65, 0x71, 0x75, 0x65, 0x6e, 0x74, 0x69, 0x61, 0x6c, 0x5f, 0x33, 0x2f, 0x64, 0x65, 0x6e, 0x73, 0x65, 0x5f, 0x37, 0x2f, 0x42, 0x69, 0x61, 0x73, 0x41, 0x64, 0x64, 0x00, 0x00, 0x00, 0x00, 0x02, 0x00, 0x00, 0x00, 0x01, 0x00, 0x00, 0x00, 0x01, 0x00, 0x00, 0x00, 0xbe, 0xfc, 0xff, 0xff, 0x38, 0x00, 0x00, 0x00, 0x0b, 0x00, 0x00, 0x00, 0x0c, 0x00, 0x00, 0x00, 0x04, 0x00, 0x00, 0x00, 0xb0, 0xfc, 0xff, 0xff, 0x1e, 0x00, 0x00, 0x00, 0x73, 0x65, 0x71, 0x75, 0x65, 0x6e, 0x74, 0x69, 0x61, 0x6c, 0x5f, 0x33, 0x2f, 0x66, 0x6c, 0x61, 0x74, 0x74, 0x65, 0x6e, 0x5f, 0x31, 0x2f, 0x52, 0x65, 0x73, 0x68, 0x61, 0x70, 0x65, 0x00, 0x00, 0x02, 0x00, 0x00, 0x00, 0x01, 0x00, 0x00, 0x00, 0x40, 0x01, 0x00, 0x00, 0x06, 0xfd, 0xff, 0xff, 0x24, 0x00, 0x00, 0x00, 0x0a, 0x00, 0x00, 0x00, 0x0c, 0x00, 0x00, 0x00, 0x04, 0x00, 0x00, 0x00, 0xf8, 0xfc, 0xff, 0xff, 0x0b, 0x00, 0x00, 0x00, 0x74, 0x66, 0x6c, 0x2e, 0x63, 0x6f, 0x6e, 0x76, 0x5f, 0x32, 0x64, 0x00, 0x04, 0x00, 0x00, 0x00, 0x01, 0x00, 0x00, 0x00, 0x08, 0x00, 0x00, 0x00, 0x08, 0x00, 0x00, 0x00, 0x05, 0x00, 0x00, 0x00, 0x42, 0xfd, 0xff, 0xff, 0x54, 0x00, 0x00, 0x00, 0x09, 0x00, 0x00, 0x00, 0x0c, 0x00, 0x00, 0x00, 0x04, 0x00, 0x00, 0x00, 0x34, 0xfd, 0xff, 0xff, 0x3b, 0x00, 0x00, 0x00, 0x73, 0x65, 0x71, 0x75, 0x65, 0x6e, 0x74, 0x69, 0x61, 0x6c, 0x5f, 0x33, 0x2f, 0x73, 0x65, 0x70, 0x61, 0x72, 0x61, 0x62, 0x6c, 0x65, 0x5f, 0x63, 0x6f, 0x6e, 0x76, 0x32, 0x64, 0x5f, 0x31, 0x2f, 0x73, 0x65, 0x70, 0x61, 0x72, 0x61, 0x62, 0x6c, 0x65, 0x5f, 0x63, 0x6f, 0x6e, 0x76, 0x32, 0x64, 0x2f, 0x64, 0x65, 0x70, 0x74, 0x68, 0x77, 0x69, 0x73, 0x65, 0x32, 0x00, 0x04, 0x00, 0x00, 0x00, 0x01, 0x00, 0x00, 0x00, 0x08, 0x00, 0x00, 0x00, 0x08, 0x00, 0x00, 0x00, 0x01, 0x00, 0x00, 0x00, 0xae, 0xfd, 0xff, 0xff, 0x28, 0x00, 0x00, 0x00, 0x08, 0x00, 0x00, 0x00, 0x0c, 0x00, 0x00, 0x00, 0x04, 0x00, 0x00, 0x00, 0xa0, 0xfd, 0xff, 0xff, 0x0c, 0x00, 0x00, 0x00, 0x73, 0x74, 0x64, 0x2e, 0x63, 0x6f, 0x6e, 0x73, 0x74, 0x61, 0x6e, 0x74, 0x00, 0x00, 0x00, 0x00, 0x01, 0x00, 0x00, 0x00, 0x05, 0x00, 0x00, 0x00, 0xe2, 0xfd, 0xff, 0xff, 0x4c, 0x00, 0x00, 0x00, 0x07, 0x00, 0x00, 0x00, 0x0c, 0x00, 0x00, 0x00, 0x04, 0x00, 0x00, 0x00, 0xd4, 0xfd, 0xff, 0xff, 0x30, 0x00, 0x00, 0x00, 0x73, 0x65, 0x71, 0x75, 0x65, 0x6e, 0x74, 0x69, 0x61, 0x6c, 0x5f, 0x33, 0x2f, 0x73, 0x65, 0x70, 0x61, 0x72, 0x61, 0x62, 0x6c, 0x65, 0x5f, 0x63, 0x6f, 0x6e, 0x76, 0x32, 0x64, 0x5f, 0x31, 0x2f, 0x73, 0x65, 0x70, 0x61, 0x72, 0x61, 0x62, 0x6c, 0x65, 0x5f, 0x63, 0x6f, 0x6e, 0x76, 0x32, 0x64, 0x00, 0x00, 0x00, 0x00, 0x04, 0x00, 0x00, 0x00, 0x05, 0x00, 0x00, 0x00, 0x01, 0x00, 0x00, 0x00, 0x01, 0x00, 0x00, 0x00, 0x01, 0x00, 0x00, 0x00, 0x46, 0xfe, 0xff, 0xff, 0x54, 0x00, 0x00, 0x00, 0x06, 0x00, 0x00, 0x00, 0x0c, 0x00, 0x00, 0x00, 0x04, 0x00, 0x00, 0x00, 0x38, 0xfe, 0xff, 0xff, 0x3b, 0x00, 0x00, 0x00, 0x73, 0x65, 0x71, 0x75, 0x65, 0x6e, 0x74, 0x69, 0x61, 0x6c, 0x5f, 0x33, 0x2f, 0x73, 0x65, 0x70, 0x61, 0x72, 0x61, 0x62, 0x6c, 0x65, 0x5f, 0x63, 0x6f, 0x6e, 0x76, 0x32, 0x64, 0x5f, 0x31, 0x2f, 0x73, 0x65, 0x70, 0x61, 0x72, 0x61, 0x62, 0x6c, 0x65, 0x5f, 0x63, 0x6f, 0x6e, 0x76, 0x32, 0x64, 0x2f, 0x64, 0x65, 0x70, 0x74, 0x68, 0x77, 0x69, 0x73, 0x65, 0x31, 0x00, 0x04, 0x00, 0x00, 0x00, 0x01, 0x00, 0x00, 0x00, 0x03, 0x00, 0x00, 0x00, 0x03, 0x00, 0x00, 0x00, 0x01, 0x00, 0x00, 0x00, 0xb2, 0xfe, 0xff, 0xff, 0x54, 0x00, 0x00, 0x00, 0x05, 0x00, 0x00, 0x00, 0x0c, 0x00, 0x00, 0x00, 0x04, 0x00, 0x00, 0x00, 0xa4, 0xfe, 0xff, 0xff, 0x3a, 0x00, 0x00, 0x00, 0x73, 0x65, 0x71, 0x75, 0x65, 0x6e, 0x74, 0x69, 0x61, 0x6c, 0x5f, 0x33, 0x2f, 0x73, 0x65, 0x70, 0x61, 0x72, 0x61, 0x62, 0x6c, 0x65, 0x5f, 0x63, 0x6f, 0x6e, 0x76, 0x32, 0x64, 0x5f, 0x31, 0x2f, 0x73, 0x65, 0x70, 0x61, 0x72, 0x61, 0x62, 0x6c, 0x65, 0x5f, 0x63, 0x6f, 0x6e, 0x76, 0x32, 0x64, 0x2f, 0x64, 0x65, 0x70, 0x74, 0x68, 0x77, 0x69, 0x73, 0x65, 0x00, 0x00, 0x01, 0x00, 0x00, 0x00, 0x01, 0x00, 0x00, 0x00, 0x12, 0xff, 0xff, 0xff, 0x34, 0x00, 0x00, 0x00, 0x04, 0x00, 0x00, 0x00, 0x0c, 0x00, 0x00, 0x00, 0x04, 0x00, 0x00, 0x00, 0x04, 0xff, 0xff, 0xff, 0x1b, 0x00, 0x00, 0x00, 0x73, 0x65, 0x71, 0x75, 0x65, 0x6e, 0x74, 0x69, 0x61, 0x6c, 0x5f, 0x33, 0x2f, 0x64, 0x65, 0x6e, 0x73, 0x65, 0x5f, 0x37, 0x2f, 0x4d, 0x61, 0x74, 0x4d, 0x75, 0x6c, 0x00, 0x02, 0x00, 0x00, 0x00, 0x01, 0x00, 0x00, 0x00, 0x40, 0x01, 0x00, 0x00, 0x00, 0x00, 0x0e, 0x00, 0x18, 0x00, 0x08, 0x00, 0x07, 0x00, 0x0c, 0x00, 0x10, 0x00, 0x14, 0x00, 0x0e, 0x00, 0x00, 0x00, 0x00, 0x00, 0x00, 0x02, 0x38, 0x00, 0x00, 0x00, 0x03, 0x00, 0x00, 0x00, 0x0c, 0x00, 0x00, 0x00, 0x04, 0x00, 0x00, 0x00, 0x5c, 0xff, 0xff, 0xff, 0x1c, 0x00, 0x00, 0x00, 0x73, 0x65, 0x71, 0x75, 0x65, 0x6e, 0x74, 0x69, 0x61, 0x6c, 0x5f, 0x33, 0x2f, 0x66, 0x6c, 0x61, 0x74, 0x74, 0x65, 0x6e, 0x5f, 0x31, 0x2f, 0x43, 0x6f, 0x6e, 0x73, 0x74, 0x00, 0x00, 0x00, 0x00, 0x01, 0x00, 0x00, 0x00, 0x02, 0x00, 0x00, 0x00, 0xae, 0xff, 0xff, 0xff, 0x44, 0x00, 0x00, 0x00, 0x02, 0x00, 0x00, 0x00, 0x0c, 0x00, 0x00, 0x00, 0x04, 0x00, 0x00, 0x00, 0xa0, 0xff, 0xff, 0xff, 0x2b, 0x00, 0x00, 0x00, 0x73, 0x65, 0x71, 0x75, 0x65, 0x6e, 0x74, 0x69, 0x61, 0x6c, 0x5f, 0x33, 0x2f, 0x64, 0x65, 0x6e, 0x73, 0x65, 0x5f, 0x37, 0x2f, 0x42, 0x69, 0x61, 0x73, 0x41, 0x64, 0x64, 0x2f, 0x52, 0x65, 0x61, 0x64, 0x56, 0x61, 0x72, 0x69, 0x61, 0x62, 0x6c, 0x65, 0x4f, 0x70, 0x00, 0x01, 0x00, 0x00, 0x00, 0x01, 0x00, 0x00, 0x00, 0x00, 0x00, 0x0e, 0x00, 0x14, 0x00, 0x04, 0x00, 0x00, 0x00, 0x08, 0x00, 0x0c, 0x00, 0x10, 0x00, 0x0e, 0x00, 0x00, 0x00, 0x38, 0x00, 0x00, 0x00, 0x01, 0x00, 0x00, 0x00, 0x10, 0x00, 0x00, 0x00, 0x08, 0x00, 0x00, 0x00, 0x04, 0x00, 0x04, 0x00, 0x04, 0x00, 0x00, 0x00, 0x18, 0x00, 0x00, 0x00, 0x73, 0x65, 0x70, 0x61, 0x72, 0x61, 0x62, 0x6c, 0x65, 0x5f, 0x63, 0x6f, 0x6e, 0x76, 0x32, 0x64, 0x5f, 0x31, 0x5f, 0x69, 0x6e, 0x70, 0x75, 0x74, 0x00, 0x00, 0x00, 0x00, 0x04, 0x00, 0x00, 0x00, 0x01, 0x00, 0x00, 0x00, 0x0a, 0x00, 0x00, 0x00, 0x0a, 0x00, 0x00, 0x00, 0x01, 0x00, 0x00, 0x00, 0x05, 0x00, 0x00, 0x00, 0x54, 0x00, 0x00, 0x00, 0x3c, 0x00, 0x00, 0x00, 0x28, 0x00, 0x00, 0x00, 0x10, 0x00, 0x00, 0x00, 0x04, 0x00, 0x00, 0x00, 0xc6, 0xff, 0xff, 0xff, 0x00, 0x00, 0x00, 0x0e, 0xe6, 0xff, 0xff, 0xff, 0x00, 0x00, 0x00, 0x09, 0x03, 0x00, 0x00, 0x00, 0x00, 0x00, 0x06, 0x00, 0x06, 0x00, 0x05, 0x00, 0x06, 0x00, 0x00, 0x00, 0x00, 0x16, 0x0a, 0x00, 0x0e, 0x00, 0x07, 0x00, 0x00, 0x00, 0x08, 0x00, 0x0a, 0x00, 0x00, 0x00, 0x00, 0x00, 0x00, 0x03, 0x02, 0x00, 0x00, 0x00, 0x00, 0x00, 0x06, 0x00, 0x08, 0x00, 0x07, 0x00, 0x06, 0x00, 0x00, 0x00, 0x00, 0x00, 0x00, 0x04};
const int model_data_len = 3224;

#define NUMBER_OF_INPUTS 100
#define NUMBER_OF_OUTPUTS 1
