
#ifdef __has_attribute
#define HAVE_ATTRIBUTE(x) __has_attribute(x)
#else
#define HAVE_ATTRIBUTE(x) 0
#endif
#if HAVE_ATTRIBUTE(aligned) || (defined(__GNUC__) && !defined(__clang__))
#define DATA_ALIGN_ATTRIBUTE __attribute__((aligned(4)))
#else
#define DATA_ALIGN_ATTRIBUTE
#endif

const unsigned char model_data[] DATA_ALIGN_ATTRIBUTE = {0x08, 0x00, 0x00, 0x00, 0x54, 0x46, 0x4c, 0x33, 0x4e, 0xfd, 0xff, 0xff, 0x03, 0x00, 0x00, 0x00, 0x10, 0x07, 0x00, 0x00, 0x9c, 0x02, 0x00, 0x00, 0x84, 0x02, 0x00, 0x00, 0x04, 0x00, 0x00, 0x00, 0x0c, 0x00, 0x00, 0x00, 0x74, 0x02, 0x00, 0x00, 0x6c, 0x02, 0x00, 0x00, 0x40, 0x02, 0x00, 0x00, 0x0c, 0x02, 0x00, 0x00, 0xf8, 0x01, 0x00, 0x00, 0x24, 0x01, 0x00, 0x00, 0x50, 0x00, 0x00, 0x00, 0x24, 0x00, 0x00, 0x00, 0x1c, 0x00, 0x00, 0x00, 0x14, 0x00, 0x00, 0x00, 0x0c, 0x00, 0x00, 0x00, 0x04, 0x00, 0x00, 0x00, 0x58, 0xf9, 0xff, 0xff, 0x5c, 0xf9, 0xff, 0xff, 0x60, 0xf9, 0xff, 0xff, 0x64, 0xf9, 0xff, 0xff, 0xfe, 0xfd, 0xff, 0xff, 0x04, 0x00, 0x00, 0x00, 0x1c, 0x00, 0x00, 0x00, 0x8c, 0x7e, 0x4f, 0xbe, 0x08, 0x35, 0xcb, 0x3e, 0xb2, 0x56, 0xe5, 0x3e, 0xb6, 0xcf, 0x9a, 0x3e, 0xb3, 0x60, 0xc0, 0xbe, 0xc9, 0xae, 0xd1, 0x3e, 0x31, 0xfb, 0xaa, 0xbe, 0x26, 0xfe, 0xff, 0xff, 0x04, 0x00, 0x00, 0x00, 0xc4, 0x00, 0x00, 0x00, 0x89, 0xf2, 0x13, 0x3f, 0x1f, 0x7e, 0x31, 0x3f, 0x63, 0x63, 0xf4, 0xbd, 0x06, 0x85, 0xb3, 0x3e, 0xd0, 0xbc, 0x05, 0xbe, 0xc0, 0x2b, 0x90, 0x3c, 0x32, 0x33, 0x1b, 0x3f, 0x39, 0x45, 0x94, 0x3e, 0xc7, 0x02, 0xde, 0x3e, 0x56, 0x6c, 0x9f, 0x3e, 0x75, 0xca, 0xeb, 0x3e, 0x70, 0x48, 0x73, 0x3e, 0x3e, 0x2d, 0x62, 0xba, 0x74, 0x48, 0xdc, 0x3c, 0x80, 0x01, 0x76, 0xbd, 0xc0, 0x6b, 0xea, 0xbc, 0x30, 0x14, 0xb5, 0xbd, 0x53, 0x5f, 0xe3, 0xbe, 0x0e, 0x3d, 0xbc, 0xbe, 0x22, 0xba, 0x0e, 0xbf, 0x4c, 0xf4, 0x91, 0xbe, 0x7c, 0x53, 0x1d, 0xbd, 0x2a, 0x9c, 0x98, 0x3d, 0x15, 0xcb, 0x10, 0x3f, 0xad, 0x8f, 0xae, 0xbe, 0x08, 0xa7, 0x07, 0x3f, 0x7f, 0xb6, 0xf9, 0x3d, 0x0b, 0x91, 0xf9, 0x3d, 0x48, 0x7b, 0x03, 0x3f, 0x4f, 0x7b, 0x40, 0xbe, 0x45, 0xe1, 0x03, 0x3f, 0x31, 0x8d, 0x87, 0x3e, 0x8a, 0x26, 0x94, 0x3e, 0xaa, 0xe4, 0x1e, 0xbe, 0xb5, 0xc1, 0xa1, 0x3e, 0x92, 0x29, 0xe4, 0xbe, 0x4e, 0x4a, 0x0b, 0x3f, 0x99, 0x82, 0x7f, 0xbd, 0x36, 0x78, 0x2b, 0x3f, 0xac, 0x75, 0xe2, 0xbe, 0x25, 0x21, 0x9f, 0xbd, 0xd0, 0x75, 0xec, 0xbe, 0xc7, 0xeb, 0x54, 0x3e, 0x1a, 0xef, 0xe8, 0x3e, 0x01, 0xaf, 0x2c, 0x3f, 0x9e, 0x7f, 0x22, 0xbe, 0x1f, 0xd8, 0x09, 0xbf, 0x09, 0x4a, 0x1d, 0x3f, 0xd6, 0xb7, 0x32, 0x3e, 0xf6, 0xfe, 0xff, 0xff, 0x04, 0x00, 0x00, 0x00, 0xc4, 0x00, 0x00, 0x00, 0xca, 0x73, 0x6a, 0xbd, 0x96, 0x3f, 0x18, 0xbf, 0xa5, 0x96, 0xaa, 0x3e, 0x8e, 0xd6, 0xac, 0xbe, 0x39, 0x3d, 0x09, 0xba, 0xae, 0xbe, 0x2c, 0x3e, 0x56, 0x06, 0xd1, 0xbe, 0x76, 0x68, 0x16, 0x3e, 0x13, 0xed, 0x12, 0xbf, 0x6a, 0xbd, 0x90, 0x3e, 0xa6, 0x8d, 0xa8, 0x3e, 0xd5, 0xc4, 0xf1, 0x3e, 0x43, 0x31, 0x0d, 0xbf, 0xee, 0xa3, 0x76, 0xbd, 0xac, 0x12, 0xfb, 0xbc, 0x8a, 0x06, 0x85, 0xbe, 0x27, 0xa2, 0xf7, 0x3e, 0xa6, 0xc9, 0x0e, 0xbf, 0xdd, 0x65, 0x4a, 0x3e, 0xaa, 0xab, 0xb6, 0xbe, 0x17, 0x50, 0x31, 0xbd, 0x89, 0xd0, 0x08, 0xbe, 0xfb, 0xbd, 0x7d, 0x3e, 0xbb, 0x1f, 0x49, 0xbf, 0x37, 0x1d, 0x05, 0x3f, 0xe6, 0x49, 0x2e, 0x3e, 0xad, 0x07, 0xe4, 0x3c, 0x95, 0x15, 0x99, 0x3d, 0xb6, 0xed, 0x89, 0xbe, 0xdd, 0x61, 0x09, 0x3f, 0xde, 0x4d, 0x70, 0x3e, 0x57, 0xf6, 0x0d, 0xbf, 0x01, 0xf0, 0xf0, 0x3d, 0x93, 0x1b, 0x65, 0xbe, 0x17, 0xda, 0x18, 0xbe, 0xa2, 0x13, 0xd3, 0xbe, 0xf6, 0xba, 0x9d, 0xbe, 0xd8, 0x29, 0x4c, 0xbe, 0x2b, 0x1c, 0x50, 0x3e, 0x6c, 0x3d, 0xd9, 0x3e, 0x27, 0x30, 0xf5, 0xbe, 0x00, 0xec, 0x17, 0xbd, 0x9d, 0x38, 0x08, 0x3e, 0xcf, 0x61, 0x8e, 0xbe, 0xe6, 0x0c, 0xd1, 0xbe, 0xd5, 0xc6, 0x5a, 0x3e, 0xb2, 0x8f, 0xec, 0xbe, 0xc3, 0x09, 0xdb, 0x3e, 0xd1, 0xe8, 0x13, 0xbe, 0xc6, 0xff, 0xff, 0xff, 0x04, 0x00, 0x00, 0x00, 0x04, 0x00, 0x00, 0x00, 0x4c, 0x17, 0xd9, 0xbc, 0xd6, 0xff, 0xff, 0xff, 0x04, 0x00, 0x00, 0x00, 0x1c, 0x00, 0x00, 0x00, 0xf4, 0xbe, 0x50, 0x3d, 0x7f, 0xe9, 0xe5, 0xbc, 0x00, 0x00, 0x00, 0x00, 0x84, 0xc5, 0x87, 0xbd, 0xa5, 0xfb, 0xc7, 0x3c, 0x7f, 0xbc, 0x46, 0x3a, 0x0e, 0x86, 0xa1, 0x3d, 0x00, 0x00, 0x06, 0x00, 0x08, 0x00, 0x04, 0x00, 0x06, 0x00, 0x00, 0x00, 0x04, 0x00, 0x00, 0x00, 0x1c, 0x00, 0x00, 0x00, 0x69, 0xf9, 0x0d, 0x3e, 0x4b, 0x34, 0x80, 0xbd, 0x26, 0x7d, 0x7d, 0xbd, 0x4d, 0xc9, 0xc1, 0x3d, 0x1f, 0xb6, 0x6a, 0xbd, 0xb8, 0x0a, 0x48, 0x3d, 0x85, 0x3b, 0x07, 0xbe, 0x98, 0xfb, 0xff, 0xff, 0x9c, 0xfb, 0xff, 0xff, 0x0f, 0x00, 0x00, 0x00, 0x4d, 0x4c, 0x49, 0x52, 0x20, 0x43, 0x6f, 0x6e, 0x76, 0x65, 0x72, 0x74, 0x65, 0x64, 0x2e, 0x00, 0x01, 0x00, 0x00, 0x00, 0x14, 0x00, 0x00, 0x00, 0x00, 0x00, 0x0e, 0x00, 0x18, 0x00, 0x04, 0x00, 0x08, 0x00, 0x0c, 0x00, 0x10, 0x00, 0x14, 0x00, 0x0e, 0x00, 0x00, 0x00, 0x30, 0x01, 0x00, 0x00, 0x24, 0x01, 0x00, 0x00, 0x18, 0x01, 0x00, 0x00, 0x14, 0x00, 0x00, 0x00, 0x04, 0x00, 0x00, 0x00, 0x04, 0x00, 0x00, 0x00, 0x6d, 0x61, 0x69, 0x6e, 0x00, 0x00, 0x00, 0x00, 0x04, 0x00, 0x00, 0x00, 0xc0, 0x00, 0x00, 0x00, 0x78, 0x00, 0x00, 0x00, 0x34, 0x00, 0x00, 0x00, 0x10, 0x00, 0x00, 0x00, 0x00, 0x00, 0x0a, 0x00, 0x10, 0x00, 0x04, 0x00, 0x08, 0x00, 0x0c, 0x00, 0x0a, 0x00, 0x00, 0x00, 0x01, 0x00, 0x00, 0x00, 0x10, 0x00, 0x00, 0x00, 0x04, 0x00, 0x00, 0x00, 0x01, 0x00, 0x00, 0x00, 0x0a, 0x00, 0x00, 0x00, 0x01, 0x00, 0x00, 0x00, 0x09, 0x00, 0x00, 0x00, 0xce, 0xff, 0xff, 0xff, 0x00, 0x00, 0x00, 0x08, 0x18, 0x00, 0x00, 0x00, 0x0c, 0x00, 0x00, 0x00, 0x04, 0x00, 0x00, 0x00, 0x44, 0xfc, 0xff, 0xff, 0x01, 0x00, 0x00, 0x00, 0x09, 0x00, 0x00, 0x00, 0x03, 0x00, 0x00, 0x00, 0x08, 0x00, 0x00, 0x00, 0x06, 0x00, 0x00, 0x00, 0x03, 0x00, 0x00, 0x00, 0x00, 0x00, 0x0e, 0x00, 0x14, 0x00, 0x00, 0x00, 0x08, 0x00, 0x0c, 0x00, 0x07, 0x00, 0x10, 0x00, 0x0e, 0x00, 0x00, 0x00, 0x00, 0x00, 0x00, 0x08, 0x1c, 0x00, 0x00, 0x00, 0x10, 0x00, 0x00, 0x00, 0x04, 0x00, 0x00, 0x00, 0xba, 0xff, 0xff, 0xff, 0x00, 0x00, 0x00, 0x01, 0x01, 0x00, 0x00, 0x00, 0x08, 0x00, 0x00, 0x00, 0x03, 0x00, 0x00, 0x00, 0x07, 0x00, 0x00, 0x00, 0x05, 0x00, 0x00, 0x00, 0x02, 0x00, 0x00, 0x00, 0x00, 0x00, 0x0e, 0x00, 0x16, 0x00, 0x00, 0x00, 0x08, 0x00, 0x0c, 0x00, 0x07, 0x00, 0x10, 0x00, 0x0e, 0x00, 0x00, 0x00, 0x00, 0x00, 0x00, 0x08, 0x24, 0x00, 0x00, 0x00, 0x18, 0x00, 0x00, 0x00, 0x0c, 0x00, 0x00, 0x00, 0x00, 0x00, 0x06, 0x00, 0x08, 0x00, 0x07, 0x00, 0x06, 0x00, 0x00, 0x00, 0x00, 0x00, 0x00, 0x01, 0x01, 0x00, 0x00, 0x00, 0x07, 0x00, 0x00, 0x00, 0x03, 0x00, 0x00, 0x00, 0x00, 0x00, 0x00, 0x00, 0x04, 0x00, 0x00, 0x00, 0x01, 0x00, 0x00, 0x00, 0x01, 0x00, 0x00, 0x00, 0x0a, 0x00, 0x00, 0x00, 0x01, 0x00, 0x00, 0x00, 0x00, 0x00, 0x00, 0x00, 0x0b, 0x00, 0x00, 0x00, 0xe8, 0x02, 0x00, 0x00, 0x88, 0x02, 0x00, 0x00, 0x34, 0x02, 0x00, 0x00, 0xe0, 0x01, 0x00, 0x00, 0x9c, 0x01, 0x00, 0x00, 0x54, 0x01, 0x00, 0x00, 0x0c, 0x01, 0x00, 0x00, 0xc8, 0x00, 0x00, 0x00, 0x84, 0x00, 0x00, 0x00, 0x3c, 0x00, 0x00, 0x00, 0x04, 0x00, 0x00, 0x00, 0x52, 0xfd, 0xff, 0xff, 0x24, 0x00, 0x00, 0x00, 0x0b, 0x00, 0x00, 0x00, 0x0c, 0x00, 0x00, 0x00, 0x04, 0x00, 0x00, 0x00, 0x44, 0xfd, 0xff, 0xff, 0x08, 0x00, 0x00, 0x00, 0x49, 0x64, 0x65, 0x6e, 0x74, 0x69, 0x74, 0x79, 0x00, 0x00, 0x00, 0x00, 0x02, 0x00, 0x00, 0x00, 0x01, 0x00, 0x00, 0x00, 0x01, 0x00, 0x00, 0x00, 0x86, 0xfd, 0xff, 0xff, 0x34, 0x00, 0x00, 0x00, 0x0a, 0x00, 0x00, 0x00, 0x0c, 0x00, 0x00, 0x00, 0x04, 0x00, 0x00, 0x00, 0x78, 0xfd, 0xff, 0xff, 0x1a, 0x00, 0x00, 0x00, 0x73, 0x65, 0x71, 0x75, 0x65, 0x6e, 0x74, 0x69, 0x61, 0x6c, 0x2f, 0x64, 0x65, 0x6e, 0x73, 0x65, 0x5f, 0x32, 0x2f, 0x42, 0x69, 0x61, 0x73, 0x41, 0x64, 0x64, 0x00, 0x00, 0x02, 0x00, 0x00, 0x00, 0x01, 0x00, 0x00, 0x00, 0x01, 0x00, 0x00, 0x00, 0xca, 0xfd, 0xff, 0xff, 0x30, 0x00, 0x00, 0x00, 0x09, 0x00, 0x00, 0x00, 0x0c, 0x00, 0x00, 0x00, 0x04, 0x00, 0x00, 0x00, 0xbc, 0xfd, 0xff, 0xff, 0x17, 0x00, 0x00, 0x00, 0x73, 0x65, 0x71, 0x75, 0x65, 0x6e, 0x74, 0x69, 0x61, 0x6c, 0x2f, 0x64, 0x65, 0x6e, 0x73, 0x65, 0x5f, 0x31, 0x2f, 0x52, 0x65, 0x6c, 0x75, 0x00, 0x02, 0x00, 0x00, 0x00, 0x01, 0x00, 0x00, 0x00, 0x07, 0x00, 0x00, 0x00, 0x0a, 0xfe, 0xff, 0xff, 0x30, 0x00, 0x00, 0x00, 0x08, 0x00, 0x00, 0x00, 0x0c, 0x00, 0x00, 0x00, 0x04, 0x00, 0x00, 0x00, 0xfc, 0xfd, 0xff, 0xff, 0x15, 0x00, 0x00, 0x00, 0x73, 0x65, 0x71, 0x75, 0x65, 0x6e, 0x74, 0x69, 0x61, 0x6c, 0x2f, 0x64, 0x65, 0x6e, 0x73, 0x65, 0x2f, 0x52, 0x65, 0x6c, 0x75, 0x00, 0x00, 0x00, 0x02, 0x00, 0x00, 0x00, 0x01, 0x00, 0x00, 0x00, 0x07, 0x00, 0x00, 0x00, 0x4a, 0xfe, 0xff, 0xff, 0x34, 0x00, 0x00, 0x00, 0x07, 0x00, 0x00, 0x00, 0x0c, 0x00, 0x00, 0x00, 0x04, 0x00, 0x00, 0x00, 0x3c, 0xfe, 0xff, 0xff, 0x19, 0x00, 0x00, 0x00, 0x73, 0x65, 0x71, 0x75, 0x65, 0x6e, 0x74, 0x69, 0x61, 0x6c, 0x2f, 0x64, 0x65, 0x6e, 0x73, 0x65, 0x5f, 0x32, 0x2f, 0x4d, 0x61, 0x74, 0x4d, 0x75, 0x6c, 0x00, 0x00, 0x00, 0x02, 0x00, 0x00, 0x00, 0x01, 0x00, 0x00, 0x00, 0x07, 0x00, 0x00, 0x00, 0x8e, 0xfe, 0xff, 0xff, 0x34, 0x00, 0x00, 0x00, 0x06, 0x00, 0x00, 0x00, 0x0c, 0x00, 0x00, 0x00, 0x04, 0x00, 0x00, 0x00, 0x80, 0xfe, 0xff, 0xff, 0x19, 0x00, 0x00, 0x00, 0x73, 0x65, 0x71, 0x75, 0x65, 0x6e, 0x74, 0x69, 0x61, 0x6c, 0x2f, 0x64, 0x65, 0x6e, 0x73, 0x65, 0x5f, 0x31, 0x2f, 0x4d, 0x61, 0x74, 0x4d, 0x75, 0x6c, 0x00, 0x00, 0x00, 0x02, 0x00, 0x00, 0x00, 0x07, 0x00, 0x00, 0x00, 0x07, 0x00, 0x00, 0x00, 0xd2, 0xfe, 0xff, 0xff, 0x30, 0x00, 0x00, 0x00, 0x05, 0x00, 0x00, 0x00, 0x0c, 0x00, 0x00, 0x00, 0x04, 0x00, 0x00, 0x00, 0xc4, 0xfe, 0xff, 0xff, 0x17, 0x00, 0x00, 0x00, 0x73, 0x65, 0x71, 0x75, 0x65, 0x6e, 0x74, 0x69, 0x61, 0x6c, 0x2f, 0x64, 0x65, 0x6e, 0x73, 0x65, 0x2f, 0x4d, 0x61, 0x74, 0x4d, 0x75, 0x6c, 0x00, 0x02, 0x00, 0x00, 0x00, 0x07, 0x00, 0x00, 0x00, 0x07, 0x00, 0x00, 0x00, 0x12, 0xff, 0xff, 0xff, 0x44, 0x00, 0x00, 0x00, 0x04, 0x00, 0x00, 0x00, 0x0c, 0x00, 0x00, 0x00, 0x04, 0x00, 0x00, 0x00, 0x04, 0xff, 0xff, 0xff, 0x29, 0x00, 0x00, 0x00, 0x73, 0x65, 0x71, 0x75, 0x65, 0x6e, 0x74, 0x69, 0x61, 0x6c, 0x2f, 0x64, 0x65, 0x6e, 0x73, 0x65, 0x5f, 0x32, 0x2f, 0x42, 0x69, 0x61, 0x73, 0x41, 0x64, 0x64, 0x2f, 0x52, 0x65, 0x61, 0x64, 0x56, 0x61, 0x72, 0x69, 0x61, 0x62, 0x6c, 0x65, 0x4f, 0x70, 0x00, 0x00, 0x00, 0x01, 0x00, 0x00, 0x00, 0x01, 0x00, 0x00, 0x00, 0x62, 0xff, 0xff, 0xff, 0x44, 0x00, 0x00, 0x00, 0x03, 0x00, 0x00, 0x00, 0x0c, 0x00, 0x00, 0x00, 0x04, 0x00, 0x00, 0x00, 0x54, 0xff, 0xff, 0xff, 0x29, 0x00, 0x00, 0x00, 0x73, 0x65, 0x71, 0x75, 0x65, 0x6e, 0x74, 0x69, 0x61, 0x6c, 0x2f, 0x64, 0x65, 0x6e, 0x73, 0x65, 0x5f, 0x31, 0x2f, 0x42, 0x69, 0x61, 0x73, 0x41, 0x64, 0x64, 0x2f, 0x52, 0x65, 0x61, 0x64, 0x56, 0x61, 0x72, 0x69, 0x61, 0x62, 0x6c, 0x65, 0x4f, 0x70, 0x00, 0x00, 0x00, 0x01, 0x00, 0x00, 0x00, 0x07, 0x00, 0x00, 0x00, 0xb2, 0xff, 0xff, 0xff, 0x40, 0x00, 0x00, 0x00, 0x02, 0x00, 0x00, 0x00, 0x0c, 0x00, 0x00, 0x00, 0x04, 0x00, 0x00, 0x00, 0xa4, 0xff, 0xff, 0xff, 0x27, 0x00, 0x00, 0x00, 0x73, 0x65, 0x71, 0x75, 0x65, 0x6e, 0x74, 0x69, 0x61, 0x6c, 0x2f, 0x64, 0x65, 0x6e, 0x73, 0x65, 0x2f, 0x42, 0x69, 0x61, 0x73, 0x41, 0x64, 0x64, 0x2f, 0x52, 0x65, 0x61, 0x64, 0x56, 0x61, 0x72, 0x69, 0x61, 0x62, 0x6c, 0x65, 0x4f, 0x70, 0x00, 0x01, 0x00, 0x00, 0x00, 0x07, 0x00, 0x00, 0x00, 0x00, 0x00, 0x0e, 0x00, 0x14, 0x00, 0x04, 0x00, 0x00, 0x00, 0x08, 0x00, 0x0c, 0x00, 0x10, 0x00, 0x0e, 0x00, 0x00, 0x00, 0x28, 0x00, 0x00, 0x00, 0x01, 0x00, 0x00, 0x00, 0x10, 0x00, 0x00, 0x00, 0x08, 0x00, 0x00, 0x00, 0x04, 0x00, 0x04, 0x00, 0x04, 0x00, 0x00, 0x00, 0x0b, 0x00, 0x00, 0x00, 0x64, 0x65, 0x6e, 0x73, 0x65, 0x5f, 0x69, 0x6e, 0x70, 0x75, 0x74, 0x00, 0x02, 0x00, 0x00, 0x00, 0x01, 0x00, 0x00, 0x00, 0x07, 0x00, 0x00, 0x00, 0x02, 0x00, 0x00, 0x00, 0x20, 0x00, 0x00, 0x00, 0x0c, 0x00, 0x00, 0x00, 0x00, 0x00, 0x06, 0x00, 0x06, 0x00, 0x05, 0x00, 0x06, 0x00, 0x00, 0x00, 0x00, 0x0e, 0x0a, 0x00, 0x0c, 0x00, 0x07, 0x00, 0x00, 0x00, 0x08, 0x00, 0x0a, 0x00, 0x00, 0x00, 0x00, 0x00, 0x00, 0x09, 0x03, 0x00, 0x00, 0x00};
const int model_data_len = 1872;

#define NUMBER_OF_INPUTS 900
#define NUMBER_OF_OUTPUTS 1
